{
  "version": "1.0",
  "truncation": null,
  "padding": null,
  "added_tokens": [
    {
      "id": 0,
      "content": "<|endoftext|>",
      "single_word": false,
      "lstrip": false,
      "rstrip": false,
      "normalized": false,
      "special": true
    }
  ],
  "normalizer": null,
  "pre_tokenizer": {
    "type": "ByteLevel",
    "add_prefix_space": false,
    "trim_offsets": true,
    "use_regex": true
  },
  "post_processor": null,
  "decoder": {
    "type": "ByteLevel",
    "add_prefix_space": true,
    "trim_offsets": true,
    "use_regex": true
  },
  "model": {
    "type": "BPE",
    "dropout": null,
    "unk_token": null,
    "continuing_subword_prefix": null,
    "end_of_word_suffix": null,
    "fuse_unk": false,
    "byte_fallback": false,
    "ignore_merges": false,
    "vocab": {
      "<|endoftext|>": 0,
      "!": 1,
      "\"": 2,
      "#": 3,
      "$": 4,
      "%": 5,
      "&": 6,
      "'": 7,
      "(": 8,
      ")": 9,
      "*": 10,
      "+": 11,
      ",": 12,
      "-": 13,
      ".": 14,
      "/": 15,
      "0": 16,
      "1": 17,
      "2": 18,
      "3": 19,
      "4": 20,
      "5": 21,
      "6": 22,
      "7": 23,
      "8": 24,
      "9": 25,
      ":": 26,
      ";": 27,
      "<": 28,
      "=": 29,
      ">": 30,
      "?": 31,
      "@": 32,
      "A": 33,
      "B": 34,
      "C": 35,
      "D": 36,
      "E": 37,
      "F": 38,
      "G": 39,
      "H": 40,
      "I": 41,
      "J": 42,
      "K": 43,
      "L": 44,
      "M": 45,
      "N": 46,
      "O": 47,
      "P": 48,
      "Q": 49,
      "R": 50,
      "S": 51,
      "T": 52,
      "U": 53,
      "V": 54,
      "W": 55,
      "X": 56,
      "Y": 57,
      "Z": 58,
      "[": 59,
      "\\": 60,
      "]": 61,
      "^": 62,
      "_": 63,
      "`": 64,
      "a": 65,
      "b": 66,
      "c": 67,
      "d": 68,
      "e": 69,
      "f": 70,
      "g": 71,
      "h": 72,
      "i": 73,
      "j": 74,
      "k": 75,
      "l": 76,
      "m": 77,
      "n": 78,
      "o": 79,
      "p": 80,
      "q": 81,
      "r": 82,
      "s": 83,
      "t": 84,
      "u": 85,
      "v": 86,
      "w": 87,
      "x": 88,
      "y": 89,
      "z": 90,
      "{": 91,
      "|": 92,
      "}": 93,
      "~": 94,
      "¡": 95,
      "¢": 96,
      "£": 97,
      "¤": 98,
      "¥": 99,
      "¦": 100,
      "§": 101,
      "¨": 102,
      "©": 103,
      "ª": 104,
      "«": 105,
      "¬": 106,
      "®": 107,
      "¯": 108,
      "°": 109,
      "±": 110,
      "²": 111,
      "³": 112,
      "´": 113,
      "µ": 114,
      "¶": 115,
      "·": 116,
      "¸": 117,
      "¹": 118,
      "º": 119,
      "»": 120,
      "¼": 121,
      "½": 122,
      "¾": 123,
      "¿": 124,
      "Â": 125,
      "Ã": 126,
      "Ä": 127,
      "Å": 128,
      "Æ": 129,
      "È": 130,
      "É": 131,
      "Ê": 132,
      "Ë": 133,
      "Ì": 134,
      "Î": 135,
      "Ï": 136,
      "Ð": 137,
      "Ñ": 138,
      "Ò": 139,
      "Ô": 140,
      "Õ": 141,
      "Ö": 142,
      "×": 143,
      "Ø": 144,
      "Ù": 145,
      "Û": 146,
      "à": 147,
      "á": 148,
      "â": 149,
      "ã": 150,
      "ä": 151,
      "å": 152,
      "æ": 153,
      "ç": 154,
      "è": 155,
      "é": 156,
      "ê": 157,
      "ë": 158,
      "í": 159,
      "ï": 160,
      "ð": 161,
      "ĉ": 162,
      "Ċ": 163,
      "Ġ": 164,
      "Ģ": 165,
      "ģ": 166,
      "Ĥ": 167,
      "ĥ": 168,
      "Ħ": 169,
      "ħ": 170,
      "Ĩ": 171,
      "ĩ": 172,
      "Ī": 173,
      "ī": 174,
      "Ĭ": 175,
      "ĭ": 176,
      "Į": 177,
      "į": 178,
      "İ": 179,
      "ı": 180,
      "Ĳ": 181,
      "ĳ": 182,
      "Ĵ": 183,
      "ĵ": 184,
      "Ķ": 185,
      "ķ": 186,
      "ĸ": 187,
      "Ĺ": 188,
      "ĺ": 189,
      "Ļ": 190,
      "ļ": 191,
      "Ľ": 192,
      "ľ": 193,
      "Ŀ": 194,
      "ŀ": 195,
      "Ł": 196,
      "ł": 197,
      "Ń": 198,
      "à²": 199,
      "à¤": 200,
      "à³": 201,
      "Ġà¤": 202,
      "à¥": 203,
      "Ġà²": 204,
      "à³į": 205,
      "à²¿": 206,
      "à¤¾": 207,
      "à²°": 208,
      "à¥ĩ": 209,
      "à³ģ": 210,
      "à¤°": 211,
      "à²¾": 212,
      "à²¦": 213,
      "à¥į": 214,
      "à³Ĩ": 215,
      "Ġà¤ķ": 216,
      "à²¨": 217,
      "à¤¿": 218,
      "à²²": 219,
      "à¥Ģ": 220,
      "à²¤": 221,
      "à¤Ĥ": 222,
      "à²Ĺ": 223,
      "à¤¨": 224,
      "à²µ": 225,
      "à²Ĥ": 226,
      "à¤¤": 227,
      "à²ķ": 228,
      "à¥ĭ": 229,
      "à¤ķ": 230,
      "à²¯": 231,
      "à¤¯": 232,
      "à¤¸": 233,
      "Ġà¤¸": 234,
      "à¤²": 235,
      "Ġà¤¹": 236,
      "à²¸": 237,
      "à²³": 238,
      "à²¡": 239,
      "à¤¹": 240,
      "à¤®": 241,
      "Ġà¤®": 242,
      "Ġà¤ª": 243,
      "Ġà²®": 244,
      "à¥Ī": 245,
      "à³ĩ": 246,
      "Ġà²¸": 247,
      "à²®": 248,
      "à¥ģ": 249,
      "à¤µ": 250,
      "Ġà²ķ": 251,
      "à²Ł": 252,
      "à¥¤": 253,
      "à¤¦": 254,
      "à¤ª": 255,
      "à¥ĩà¤Ĥ": 256,
      "Ġà²¨": 257,
      "Ġà²ħ": 258,
      "à¤Ĺ": 259,
      "Ġà¤¬": 260,
      "Ġà¤¨": 261,
      "Ġà²¹": 262,
      "Ġà¤ľ": 263,
      "Ġà²ª": 264,
      "à³Ĥ": 265,
      "à²ª": 266,
      "à³Ĭ": 267,
      "à¤Ł": 268,
      "Ġà²¬": 269,
      "à³Ģ": 270,
      "Ġà¤µ": 271,
      "à¤ľ": 272,
      "Ġà¤ħ": 273,
      "à²Ĺà²³": 274,
      "Ġà¤¦": 275,
      "à³ĭ": 276,
      "à²¬": 277,
      "Ġà¤°": 278,
      "Ġà¤²": 279,
      "à²£": 280,
      "Ġà²µ": 281,
      "à¥ĭà¤Ĥ": 282,
      "à¥Ĥ": 283,
      "Ġt": 284,
      "à²·": 285,
      "à³Ĩ.": 286,
      "à¤¶": 287,
      "à²¹": 288,
      "à¤¡": 289,
      "à¤¬": 290,
      "à¤ı": 291,
      "he": 292,
      "Ġà²¤": 293,
      "Ġà²Ĩ": 294,
      "à²ļ": 295,
      "Ġa": 296,
      "à²¦à²°": 297,
      "Ġà¤Ĩ": 298,
      "Ġà²ĩ": 299,
      "Ġà¤¤": 300,
      "in": 301,
      "Ġà²İ": 302,
      "à¤ļ": 303,
      "à²ľ": 304,
      "Ġà¤ķà¤°": 305,
      "Ġà¤ī": 306,
      "Ġà¤Ĺ": 307,
      "à²§": 308,
      "à¤§": 309,
      "à²¶": 310,
      "Ġà¤ĩ": 311,
      "Ġà¤Ń": 312,
      "à¤·": 313,
      "Ġà¤Ķ": 314,
      "Ġà¤Ķà¤°": 315,
      "à²¿à²Ĥ": 316,
      "à³ģ.": 317,
      "à²µà²°": 318,
      "Ġà²°": 319,
      "à¤¥": 320,
      "à¤¼": 321,
      "Ġà¤ªà¤°": 322,
      "Ġà¤¯": 323,
      "er": 324,
      "Ġthe": 325,
      "Ġà²¦": 326,
      "à¥Īà¤Ĥ": 327,
      "à²¦à²²": 328,
      "on": 329,
      "à¥Īà¥¤": 330,
      "à¤Ī": 331,
      "à¤£": 332,
      "Ġà¤¶": 333,
      "Ġà²ľ": 334,
      "Ġà²Ĺ": 335,
      "Ġà¤ı": 336,
      "à¤ĸ": 337,
      "Ġà¤ļ": 338,
      "à¤Ń": 339,
      "Ġà¤ĩà¤¸": 340,
      "re": 341,
      "à³Ī": 342,
      "Ġ,": 343,
      "à²Ń": 344,
      "à²¥": 345,
      "Ġ1": 346,
      "Ġs": 347,
      "Ġà²¶": 348,
      "an": 349,
      "à²µà²¨": 350,
      "à³Ĭà²Ĥ": 351,
      "Ġo": 352,
      "à¤¾à¤Ĥ": 353,
      "at": 354,
      "ed": 355,
      "Ġw": 356,
      "Ġ.": 357,
      "Ġà¤¥": 358,
      "en": 359,
      "Ġà²Ī": 360,
      "ar": 361,
      "Ġ(": 362,
      "Ġà¤°à¤¹": 363,
      "Ġ2": 364,
      "it": 365,
      "Ġà²®à²¤": 366,
      "à²¯à²²": 367,
      "or": 368,
      "Ġà¤ıà¤ķ": 369,
      "es": 370,
      "is": 371,
      "Ġà²ļ": 372,
      "à¥Ģà¤Ĥ": 373,
      "à¤«": 374,
      "Ġà¤ĸ": 375,
      "Ġc": 376,
      "Ġà¤«": 377,
      "Ġà²Ń": 378,
      "Ġà²Ĵ": 379,
      "al": 380,
      "à¤ķà¤°": 381,
      "Ġà²ī": 382,
      "à¥Į": 383,
      "Ġf": 384,
      "Ġà²¯": 385,
      "nd": 386,
      "à²ķà²°": 387,
      "Ġb": 388,
      "à³ģ,": 389,
      "Ġof": 390,
      "Ġin": 391,
      "à¤¾à¥¤": 392,
      "à¤ªà¤¨": 393,
      "à³Ĩà²Ĥ": 394,
      "à²¤à²°": 395,
      "à²¾à²Ĥ": 396,
      "Ġà¤īà¤¨": 397,
      "Ġp": 398,
      "à¤°à¤¤": 399,
      "Ġà¤¸à¤®": 400,
      "Ġà¥¤": 401,
      "Ġ\"": 402,
      "Ġ'": 403,
      "Ġà¤¨à¤¹": 404,
      "à²¯à²¨": 405,
      "à³ĥ": 406,
      "à²ĸ": 407,
      "à²Ĺà²³à²¨": 408,
      "ing": 409,
      "as": 410,
      "Ġà²ħà²µà²°": 411,
      "ĠĊ": 412,
      "Ġm": 413,
      "Ġà¤¯à¤¹": 414,
      "Ġand": 415,
      "ic": 416,
      "à²¤à²¦": 417,
      "Ġà¤ķà¤°à¤¨": 418,
      "Ġà²ĩà²¦": 419,
      "à³ģà²Ĥ": 420,
      "à²°à²¦": 421,
      "à²¸à²²": 422,
      "à¥ī": 423,
      "ro": 424,
      "à¥Īà¤Ĥà¥¤": 425,
      "à¤ĩ": 426,
      "Ġto": 427,
      "à¤°à¤ķ": 428,
      "à²¯à²ķ": 429,
      "à²°à²¤": 430,
      "Ġà¤Ł": 431,
      "Ġà¤ķà¤¹": 432,
      "Ġd": 433,
      "Ġà¤īà¤¸": 434,
      "à¤Ľ": 435,
      "à²¿,": 436,
      "à³Ĩ,": 437,
      "Ġà¤ħà¤ªà¤¨": 438,
      "Ġh": 439,
      "à¤¿à¤Ĥ": 440,
      "Ġà¤ħà¤¨": 441,
      "ion": 442,
      "Ġà²²": 443,
      "à¥ĥ": 444,
      "Ġà¤Ĺà¤¯": 445,
      "le": 446,
      "Ġà¤¡": 447,
      "ĠT": 448,
      "à²°à²µ": 449,
      "Ġà²ħà²¨": 450,
      "à²¨à²²": 451,
      "à¤ķà¤¤": 452,
      "Ġ20": 453,
      "ĠS": 454,
      "ou": 455,
      "ĠA": 456,
      "Ġà¤ªà¤¹": 457,
      "à²¯à²µ": 458,
      "à²°à²£": 459,
      "à²¿.": 460,
      "Ġà²¨à²¡": 461,
      "à¤ł": 462,
      "à¤¾,": 463,
      "Ġ-": 464,
      "à²°à²ķ": 465,
      "Ġà²¸à²®": 466,
      "à³Į": 467,
      "Ġà²ªà²°": 468,
      "Ġà¤µà¤¹": 469,
      "à¤Ĩ": 470,
      "Ġà¤Ĩà¤ª": 471,
      "Ġà¤ĺ": 472,
      "à¥Ī,": 473,
      "am": 474,
      "Ġn": 475,
      "à¤¤à¤°": 476,
      "il": 477,
      "à²ĥ": 478,
      "ent": 479,
      "ĠC": 480,
      "à²¦à²¨": 481,
      "à¥Ģà¥¤": 482,
      "Ġà¤²à¤Ĺ": 483,
      "à¤¯à¤ķ": 484,
      "Ġre": 485,
      "Ġà¤ħà¤§": 486,
      "Ġà¤¬à¤¨": 487,
      "à¤µà¤°": 488,
      "om": 489,
      "à²İ": 490,
      "à²°à²®": 491,
      "à²¡à²²": 492,
      "à²Ĺà²³à²²": 493,
      "el": 494,
      "Ġà¤®à¤¹": 495,
      "Ġ=": 496,
      "à¤ľà¤¨": 497,
      "Ġà²Ł": 498,
      "Ġà²¡": 499,
      "Ġà²Ĩà²°": 500,
      "Ġà²Ĩà²Ĺ": 501,
      "Ġl": 502,
      "ĠM": 503,
      "Ġà¤ķà¤°à¤¤": 504,
      "Ġà¤§": 505,
      "Ġ3": 506,
      "st": 507,
      "ad": 508,
      "Ġà¤¸à¤ķà¤¤": 509,
      "Ġth": 510,
      "à²«": 511,
      "à²¤à²¨": 512,
      "Ġà²¸à²°": 513,
      "à¤ĵ": 514,
      "à²²à²µ": 515,
      "à¤¢": 516,
      "à²¯à²°": 517,
      "Ġà²®à²¨": 518,
      "à¤ģ": 519,
      "à¥Ī.": 520,
      "Ġà¤¹à¤®": 521,
      "Ġà¤Ľ": 522,
      "à¤¼à¤¾": 523,
      "à¤°à¤£": 524,
      "ac": 525,
      "00": 526,
      "ur": 527,
      "Ġà²ľà²¨": 528,
      "ol": 529,
      "Ġà¤īà¤¨à¤ķ": 530,
      "à²¸à²°": 531,
      "ĠI": 532,
      "à¤Łà¤°": 533,
      "Ġà²µà²°": 534,
      "à¥ĩà¥¤": 535,
      "Ġà²«": 536,
      "à²¯à²¦": 537,
      "Ġà²ı": 538,
      "ĠB": 539,
      "Ġà²ĩà²²": 540,
      "et": 541,
      "Ġà¤ĩà¤¸à¤ķ": 542,
      "à¤¸à¤°": 543,
      "Ġà²İà²²": 544,
      "ec": 545,
      "à¤°à¤®": 546,
      "à³į,": 547,
      "à²Ĺà²²": 548,
      "à²¤à²µ": 549,
      "à²¬à²°": 550,
      "à¤°à¤¦": 551,
      "à¤¶à¤¨": 552,
      "Ġà¥": 553,
      "Ġà¤¤à¤ķ": 554,
      "Ġe": 555,
      "à²°à²²": 556,
      "ĠP": 557,
      "Ġà²ħà²§": 558,
      "Ġà¤ªà¤¹à¤²": 559,
      "ir": 560,
      "id": 561,
      "à¤Ĺà¤°": 562,
      "à¤ªà¤°": 563,
      "Ġg": 564,
      "Ġ5": 565,
      "iv": 566,
      "Ġ@": 567,
      "im": 568,
      "Ġà²ħà²µ": 569,
      "à¤°à¤¹": 570,
      "Ġon": 571,
      "Ġà¤Ĳ": 572,
      "à²²à²ķ": 573,
      "ĠH": 574,
      "à²²à²¦": 575,
      "à¤¯à¤®": 576,
      "Ġwas": 577,
      "à²°à²¸": 578,
      "à²ľà²¨": 579,
      "à²¬à²¹": 580,
      "ĠThe": 581,
      "ly": 582,
      "à²®à²¨": 583,
      "Ġà¤µà¤°": 584,
      "à¥Ģ,": 585,
      "Ġà²Ĩà²¦à²°": 586,
      "Ġà²ķà²°": 587,
      "Ġà¤Ĺà¤Ī": 588,
      "Ġà²¬à²³": 589,
      "à¤¹à¤°": 590,
      "ot": 591,
      "ay": 592,
      "us": 593,
      "Ġ)": 594,
      "à¤ĥ": 595,
      "Ġà¤ĩà¤¨": 596,
      "Ġà²ĸ": 597,
      "Ġ19": 598,
      "Ġà¤īà¤ª": 599,
      "à¤²à¤¨": 600,
      "Ġ4": 601,
      "ig": 602,
      "à¤¯à¤°": 603,
      "Ġà²ħà²¦": 604,
      "ut": 605,
      "ĠR": 606,
      "Ġà²ħà²²": 607,
      "ĠD": 608,
      "Ġà²®à²¹": 609,
      "Ġà²¬à²Ĺ": 610,
      "ow": 611,
      "Ġà²§": 612,
      "Ġà²¬à²°": 613,
      "Ġfor": 614,
      "Ġà¤īà¤¸à¤ķ": 615,
      "à²Łà²°": 616,
      "Ġà¤¬à¤¤": 617,
      "Ġà²¸à²¹": 618,
      "Ġà¤ķà¤®": 619,
      "à¤²à¤¤": 620,
      "ter": 621,
      "Ġà¤Ĳà¤¸": 622,
      "à²ł": 623,
      "à¤¼à¥Ģ": 624,
      "un": 625,
      "Ġà²¨à²®": 626,
      "Ġà²ªà²¡": 627,
      "Ġas": 628,
      "ation": 629,
      "à¤¤à¤¨": 630,
      "à¤°à¤¸": 631,
      "à²·à²£": 632,
      "Ġà²ħà²Ń": 633,
      "Ġà¤¸à¤¬": 634,
      "à¥ģà¤Ĥ": 635,
      "à¤¬à¤°": 636,
      "à²ĺ": 637,
      "à¤®à¤¨": 638,
      "à¤µà¤¨": 639,
      "Ġà²īà²¤": 640,
      "à²Ĺà²°": 641,
      "Ġà¤Ĩà¤ªà¤ķ": 642,
      "ith": 643,
      "à¤Ŀ": 644,
      "-@": 645,
      "Ġ@-@": 646,
      "Ġà²¤à²¨": 647,
      "Ġà²ĩà²¨": 648,
      "à²¯à²¤": 649,
      "Ġà²ħà²°": 650,
      "Ġv": 651,
      "th": 652,
      "Ġà²¤à²®": 653,
      "à¤°à¤µ": 654,
      "Ġà¤¬à¤¹": 655,
      "ĠN": 656,
      "à²°à²¡": 657,
      "à²Ĺà²¦": 658,
      "ĠF": 659,
      "Ġà¤ľà¤¬": 660,
      "à¤¼à¥ĩ": 661,
      "ĠL": 662,
      "à¤¾à¤ģ": 663,
      "ĠG": 664,
      "à²¯à²®": 665,
      "Ġst": 666,
      "à¤ħ": 667,
      "Ġà¤ħà¤Ń": 668,
      "à²ªà²°": 669,
      "Ġà¤īà¤¤": 670,
      "à²³à²Ĺ": 671,
      "Ġ:": 672,
      "em": 673,
      "à²µà²£": 674,
      "ul": 675,
      "Ġà²¨à²¨": 676,
      "à²°à²°": 677,
      "Ġwith": 678,
      "Ġà¤¸à¤°à¤ķ": 679,
      "à¥ĩ,": 680,
      "ers": 681,
      "à¤¯à¤¤": 682,
      "ag": 683,
      "Ġà²Ĩà²¦": 684,
      "à²Ĺà²¤": 685,
      "Ġhe": 686,
      "ch": 687,
      "Ġà¤Ĩà¤°": 688,
      "à¤ī": 689,
      "ce": 690,
      "à²ªà²¡": 691,
      "à²Łà²ķ": 692,
      "Ġà¤ħà¤²": 693,
      "à¤¨à¤ķ": 694,
      "Ġbe": 695,
      "av": 696,
      "à²Łà²¨": 697,
      "Ġis": 698,
      "ĠW": 699,
      "à³į.": 700,
      "à¤¸à¤®": 701,
      "Ġthat": 702,
      "à¤¾.": 703,
      "à³ĩà²Ĥ": 704,
      "Ġ6": 705,
      "Ġà²īà²¦": 706,
      "à²¥à²µ": 707,
      "à¥Īà¤Ĥ,": 708,
      "Ġal": 709,
      "à¤ŀ": 710,
      "à²¨à²¦": 711,
      "Ġà¤°à¤ĸ": 712,
      "à¤®à¤²": 713,
      "à¤ļà¤¨": 714,
      "à¤ĺ": 715,
      "à¤Łà¤¨": 716,
      "Ġà¤¸à¤®à¤¯": 717,
      "Ġà²ĩà²°": 718,
      "ĠE": 719,
      "Ġà¤ľà¤¨": 720,
      "um": 721,
      "à²µà²²": 722,
      "Ġà¤¸à¤¹": 723,
      "Ġà¤Ĺà¤ı": 724,
      "..": 725,
      "ak": 726,
      "Ġà¤ħà¤¬": 727,
      "à²³à²²": 728,
      "Ġà²ķà²²": 729,
      "est": 730,
      "à²°à²¨": 731,
      "and": 732,
      "Ġà¤¸à¤Ń": 733,
      "os": 734,
      "Ġà²ķà²³": 735,
      "Ġby": 736,
      "à¤µà¤¸": 737,
      "Ġwh": 738,
      "Ġà²İà²¨": 739,
      "à²ªà²¨": 740,
      "à¤ľà¤°": 741,
      "Ġà¤ªà¤¤": 742,
      "à¤¸à¤ķ": 743,
      "od": 744,
      "Ġ201": 745,
      "à²²à²¸": 746,
      "ct": 747,
      "à¤ªà¤¤": 748,
      "Ġà¤Ĩà¤¯": 749,
      "Ġà¤®à¤¨": 750,
      "Ġcon": 751,
      "Ġà¤¦à¤°": 752,
      "ra": 753,
      "Ġà¤ĵ": 754,
      "à²¯à²¦à²²": 755,
      "Ġà¤¬à¤¢": 756,
      "Ġà¤¬à¤¡": 757,
      "ver": 758,
      "à¤·à¤£": 759,
      "Ġà²ķà²¡": 760,
      "Ġà¤Ĩà¤¦": 761,
      "Ġk": 762,
      "à²µà²¤": 763,
      "Ġ7": 764,
      "Ġan": 765,
      "Ġà¤¤à¤°à¤¹": 766,
      "ĠJ": 767,
      "Ġà²ķà²¨": 768,
      "à²¨à²µ": 769,
      "à²ķà²°à²£": 770,
      "à¥¦": 771,
      "à²ªà²¤": 772,
      "ew": 773,
      "Ġà²ħà²¥à²µ": 774,
      "à²¦à²ķ": 775,
      "Ġat": 776,
      "ri": 777,
      "Ġà²ħà²¤": 778,
      "Ġit": 779,
      "à¤¹à¤¤": 780,
      "Ġà³": 781,
      "Ġà¤ªà¤¡": 782,
      "à¤ķà¤²": 783,
      "à¤¯à¤¨": 784,
      "à²°à²¦à²²": 785,
      "à²ŀ": 786,
      "rom": 787,
      "Ġà²İà²°à²¡": 788,
      "Ġà²ĺ": 789,
      "Ġà¤¤à¤¥": 790,
      "Ġà¤ķà¤Ī": 791,
      "ĠK": 792,
      "ab": 793,
      "Ġ10": 794,
      "Ġ8": 795,
      "à³¦": 796,
      "ĠO": 797,
      "Ġà²Īà²Ĺ": 798,
      "Ġcom": 799,
      "à²ħ": 800,
      "à²¤à²®": 801,
      "Ġà²¬à²¹": 802,
      "à¤®à¤¤": 803,
      "Ġà¤¬à¤ļ": 804,
      "ist": 805,
      "Ġà¤ıà¤µ": 806,
      "à¤²à¤¯": 807,
      "à²Ńà²µ": 808,
      "Ġà¤Ĩà¤ľ": 809,
      "à¤¦à¤°": 810,
      "ain": 811,
      "à²°à²¹": 812,
      "à¤¦à¤¨": 813,
      "Ġà¤ħà¤°": 814,
      "à¤ıà¤Ĺ": 815,
      "à²¸à²¬": 816,
      "Ġà¤ļà¤²": 817,
      "à²¨à²¡": 818,
      "if": 819,
      "her": 820,
      "à²²à²°": 821,
      "Ġà¤¸à¤°": 822,
      "Ġà¤ĳ": 823,
      "à²¡à²¬": 824,
      "Ġà¤¹à¤°": 825,
      "à¤µà¤¤": 826,
      "Ġà²Ĩà²¯": 827,
      "ap": 828,
      "à¤µà¤²": 829,
      "Ġà²ĵ": 830,
      "Ġ202": 831,
      "op": 832,
      "à¤Ĺà¤¤": 833,
      "Ġà²Ĳ": 834,
      "Ġ|": 835,
      "up": 836,
      "Ġà²¸à²²": 837,
      "Ġà¤Ĩà¤µ": 838,
      "Ġà¤ķà¤²": 839,
      "à²µà²¦": 840,
      "à¥Īà¤Ĥ.": 841,
      "à¤¸à¤¨": 842,
      "Ġà²ªà²¤": 843,
      "à²Ĩ": 844,
      "ies": 845,
      "à²¡à²°": 846,
      "Ġà¤ĺà¤°": 847,
      "à¤¸à¤²": 848,
      "à²¦à²µ": 849,
      "Ġà²īà²ª": 850,
      "Ġ?": 851,
      "Ġà²¸à²¦": 852,
      "à²ĩ": 853,
      "à²Ĺà²¡": 854,
      "Ġà²ľà²¨à²°": 855,
      "à¤¨à¤¤": 856,
      "Ġà¤Ĩà¤¤": 857,
      "ia": 858,
      "Ġà²ıà²¨": 859,
      "Ġà²ĩà²¦à²°": 860,
      "Ġfrom": 861,
      "à²ķà²³": 862,
      "res": 863,
      "à²ķà²²": 864,
      "Ġà²ªà²ķ": 865,
      "Ġ9": 866,
      "à¤®à¤ķ": 867,
      "Ġà²ħà²ª": 868,
      "à²¶à²¨": 869,
      "ts": 870,
      "à²·à²¦": 871,
      "à²¤à²¹": 872,
      "à¥Ģ.": 873,
      "à²İà²¸": 874,
      "à¤Ĺà¤²": 875,
      "à²ļà²¨": 876,
      "Ġà²Ĩà²¸": 877,
      "à²°à²¶": 878,
      "Ġà²¹à²£": 879,
      "à²®à²¦": 880,
      "Ġà¤ħà¤®": 881,
      "à²Ĺà²µ": 882,
      "à²ļà²°": 883,
      "Ġpro": 884,
      "Ġà¤¶à¤°": 885,
      "Ġà²¸à²ļ": 886,
      "Ġà¤ľà¤°": 887,
      "ore": 888,
      "Ġà²ħà²¦à²°": 889,
      "à²°à²Ĺà²³": 890,
      "à²®à²ķ": 891,
      "Ġhis": 892,
      "à²¨à²¨": 893,
      "à²¯à²Ĺà²³": 894,
      "Ġr": 895,
      "Ġà¤¸à¤ķ": 896,
      "à²¯à²¸": 897,
      "Ġ200": 898,
      "Ġà¤¸à¤¬à¤¸": 899,
      "Ġà¤ħà¤ª": 900,
      "à¤¤à¤ķ": 901,
      "Ġor": 902,
      "Ġà¤ħà¤¸": 903,
      "Ġà²Ĩà²ķ": 904,
      "à¥ĩà¤Ĥà¥¤": 905,
      "Ġà²²à²ķ": 906,
      "à²¯à²µà²°": 907,
      "ov": 908,
      "à²¨à²Ĺà²³": 909,
      "ĠIn": 910,
      "à¤°à¤Ń": 911,
      "Ġà²Ĺà²³": 912,
      "ld": 913,
      "Ġà²İà²¸": 914,
      "ate": 915,
      "ill": 916,
      "Ġà²®à²°": 917,
      "ere": 918,
      "Ġà¤ł": 919,
      "Ġde": 920,
      "Ġà²ĩà²¤": 921,
      "Ġà¤ħà¤ļ": 922,
      "Ġ12": 923,
      "Ġ!": 924,
      "à²¸à²¦": 925,
      "à¤ĩà¤¨": 926,
      "ud": 927,
      "à²ªà²Ł": 928,
      "à²§à²¨": 929,
      "à²¯à²µà²¨": 930,
      "Ġà¤ħà¤µ": 931,
      "à²ķà²µ": 932,
      "Ġà¤ªà¤¦": 933,
      "Ġà¤Ńà¤°": 934,
      "Ġà¤Ĩà¤Ĺ": 935,
      "ip": 936,
      "Ġà¤īà¤¦": 937,
      "à²¬à²²": 938,
      "Ġà¤Ĩà¤Ī": 939,
      "oc": 940,
      "Ġà¤¬à¤²": 941,
      "qu": 942,
      "à²®à²°": 943,
      "à²¶à²¦": 944,
      "à¤§à¤¨": 945,
      "igh": 946,
      "à¤°à¤¶": 947,
      "Ġà²ħà²µà²¨": 948,
      "à¤ıà¤¸": 949,
      "ard": 950,
      "og": 951,
      "ort": 952,
      "Ġ15": 953,
      "Ġà¤Ĩà¤§": 954,
      "ity": 955,
      "à¥Ĥà¤Ĥ": 956,
      "ess": 957,
      "ong": 958,
      "Ġy": 959,
      "Ġà²®à²ķ": 960,
      "ub": 961,
      "ment": 962,
      "à²¡à²¦": 963,
      "Ġà¤¤à¤°": 964,
      "art": 965,
      "all": 966,
      "Ġ18": 967,
      "Ġwere": 968,
      "Ġà¤ľà¤²": 969,
      "Ġse": 970,
      "Ġà²Ĩà²¤": 971,
      "à¤¼à¤¿": 972,
      "§à¥": 973,
      "à¤°à¤¯": 974,
      "à²¶à²ķ": 975,
      "ĠU": 976,
      "Ġà¤ħà¤¤": 977,
      "à²¤à²ķ": 978,
      "ich": 979,
      "Ġà²ħà²®": 980,
      "à¤ĸà¤¨": 981,
      "Ġà¤Ī": 982,
      "ated": 983,
      "ant": 984,
      "Ġch": 985,
      "Ġâ": 986,
      "ive": 987,
      "Ġà¤Ŀ": 988,
      "à²¦à²µà²°": 989,
      "à²°à²¬": 990,
      "Ġà¤Ĩà¤¨": 991,
      "ame": 992,
      "end": 993,
      "Ġà¤ħà¤ķ": 994,
      "ber": 995,
      "à¥ĩ.": 996,
      "à²²à²¨": 997,
      "ug": 998,
      "à²¾.": 999,
      "à¤°à¤¨": 1000,
      "à¤ıà¤®": 1001,
      "à²°à²¯": 1002,
      "à¤¨à¤®": 1003,
      "Ġare": 1004,
      "Ġà²ħà²¡": 1005,
      "à¥ĩà¤Ĥ,": 1006,
      "ĠV": 1007,
      "à¤ªà¤ķ": 1008,
      "Ġà²ķà²Ł": 1009,
      "à²°à²ķà²°à²£": 1010,
      "Ġpl": 1011,
      "Ġà¤ľà¤¹": 1012,
      "à²ķà²¨": 1013,
      "à²¥à²³": 1014,
      "ear": 1015,
      "à¤²à¤ķ": 1016,
      "Ġex": 1017,
      "à³Ĥ,": 1018,
      "Ġà¤¸à¤¦": 1019,
      "à²®à²Ĺ": 1020,
      "Ġ11": 1021,
      "Ġà¤¸à¤¤": 1022,
      "à¤Ĩà¤Ī": 1023,
      "Ġà²¬à²¦à²²": 1024,
      "à²·à²¨": 1025,
      "à¤ķà¤°à¤£": 1026,
      "Ġà¤ĵà¤°": 1027,
      "Ġà²¤à²²": 1028,
      "à²Łà²¦": 1029,
      "Ġà²īà²³": 1030,
      "à¤ķà¤¡": 1031,
      "à³ģà²ĥ": 1032,
      "Ġsp": 1033,
      "Ġà¤ķà¤ª": 1034,
      "à¤¹à¤¨": 1035,
      "à²Łà²µ": 1036,
      "Ġà¤ľà¤®": 1037,
      "à²°à²µà²¨": 1038,
      "à²ľà²ķ": 1039,
      "à¤¨à¤¸": 1040,
      "Ġsh": 1041,
      "à²·à²Ĺà²³": 1042,
      "à¤ªà¤¯": 1043,
      "à¤¯à¤²": 1044,
      "à²¸à²¨": 1045,
      "ack": 1046,
      "Ġà²¸à²¤": 1047,
      "Ġà²¹à²²à²µ": 1048,
      "à²£à²¦": 1049,
      "à²¨à²ķ": 1050,
      "à²¤à²²": 1051,
      "à¤¨à¤¨": 1052,
      "à²ĸà²²": 1053,
      "ian": 1054,
      "Ġà²ªà²Ł": 1055,
      "Ġà²¹à²°": 1056,
      "à²¯à²ķà²°": 1057,
      "Ġà²¹à²¤": 1058,
      "Ġà²ħà²ķ": 1059,
      "Ġà²ħà²¸": 1060,
      "Ġà²¸à²®à²¸": 1061,
      "ost": 1062,
      "à¤²à¤¬": 1063,
      "à¤µà¤ķ": 1064,
      "Ġà²¤à²ª": 1065,
      "red": 1066,
      "se": 1067,
      "à²°à²ª": 1068,
      "ine": 1069,
      "20": 1070,
      "our": 1071,
      "Ġà¤ħà¤Ĺà¤°": 1072,
      "ĠâĢ": 1073,
      "Ġà¤ĸà¤°": 1074,
      "Ġnot": 1075,
      "à²ľà²°": 1076,
      "à¤¬à¤²": 1077,
      "Ġà¤īà¤®": 1078,
      "Ġà²ļà²°": 1079,
      "Ġà²ħà²¦à²¨": 1080,
      "Ġhad": 1081,
      "à²µà²³": 1082,
      "à¤¯à¤µà¤¸": 1083,
      "Ġà²İà²¦": 1084,
      "Ġà¤ĩà¤¸à¤¸": 1085,
      "à¤Łà¤ķ": 1086,
      "ĠSt": 1087,
      "Ġà¤°à¤¹à¤¤": 1088,
      "à²°à²³": 1089,
      "Ġà¤¸à¤®à¤Ŀ": 1090,
      "und": 1091,
      "Ġà¤Ĺà¤°": 1092,
      "Ġà²®à²§": 1093,
      "ang": 1094,
      "à¤¸à¤¦": 1095,
      "à²£à²µ": 1096,
      "à¤¡à¤°": 1097,
      "à²§à²°": 1098,
      "Ġà¤¬à¤¦": 1099,
      "ast": 1100,
      "à²§à²µ": 1101,
      "Ġwhich": 1102,
      "à¤¤à¤®": 1103,
      "Ġ0": 1104,
      "à¤Łà¤²": 1105,
      "ial": 1106,
      "à²µà²¸": 1107,
      "à²¡à²¨": 1108,
      "à¤ľà¤ª": 1109,
      "à¤®à¤°": 1110,
      "ect": 1111,
      "ok": 1112,
      "Ġà¤¯à¤¦": 1113,
      "rit": 1114,
      "Ġà²ıà²ķ": 1115,
      "Ġle": 1116,
      "à²Ĳ": 1117,
      "ĠCh": 1118,
      "à¤¡à¤²": 1119,
      "ish": 1120,
      "à²ªà²¦": 1121,
      "Ġà¤²à¤¡": 1122,
      "à²¡à²³": 1123,
      "ave": 1124,
      "Ġà²ªà²¦": 1125,
      "Ġà¤¬à¤ľ": 1126,
      "Ġà¤®à¤¦": 1127,
      "000": 1128,
      "à³ģ?": 1129,
      "à²°à²ľ": 1130,
      "ep": 1131,
      "Ġ/": 1132,
      "Ġ;": 1133,
      "à¤¿,": 1134,
      "à¤°à¤§": 1135,
      "à²ķà²Ł": 1136,
      "ary": 1137,
      "Ġà²°à²ķ": 1138,
      "Ġà²ĩà²µà²°": 1139,
      "ell": 1140,
      "à²µà²µà²°": 1141,
      "à²¾,": 1142,
      "à³Ĥ.": 1143,
      "Ġà¤¤à¤¬": 1144,
      "Ġà¤īà¤ł": 1145,
      "à¤ĩà¤Ł": 1146,
      "pp": 1147,
      "à²¿à²ĥ": 1148,
      "à¤¾-": 1149,
      "à²¡à²Ĺ": 1150,
      "à²°à²§": 1151,
      "Ġà²¨à²²": 1152,
      "uc": 1153,
      "à¤¯à¤µ": 1154,
      "à²µà²ķ": 1155,
      "à²Ńà²¦à²²": 1156,
      "à¤¶à¤ķ": 1157,
      "Ġag": 1158,
      "Ġà¤¬à¤°": 1159,
      "Ġà¥¥": 1160,
      "Ġà¤Ĭ": 1161,
      "à¤¯à¤¦": 1162,
      "ical": 1163,
      "à¤¬à¤¨": 1164,
      "Ġà²ħà²µà²°à²¨": 1165,
      "à²¸à²¬à²¹": 1166,
      "à¤Ľà¤²": 1167,
      "ik": 1168,
      "Ġà¤ĩà¤¸à¤²": 1169,
      "Ġ30": 1170,
      "à¤ķà¤¸": 1171,
      "Ġà²ķà²£": 1172,
      "Ġ16": 1173,
      "à¤¦à¤µ": 1174,
      "Ġà²Ĺà²®à²¨": 1175,
      "à³Ĩ?": 1176,
      "à¥ĭ,": 1177,
      "à²®à²¤": 1178,
      "à¤¨à¤²": 1179,
      "à²°à²Ĺ": 1180,
      "Ġà²°à²¸": 1181,
      "à¥Ģ-": 1182,
      "Ġà¤ĺà¤Łà¤¨": 1183,
      "Ġà¤ĩà¤²": 1184,
      "Ġà¤®à¤ľ": 1185,
      "Ġà²ĩà²µ": 1186,
      "ide": 1187,
      "ust": 1188,
      "Ġà¤ľà¤Ĺ": 1189,
      "ind": 1190,
      "à²µà²¹": 1191,
      "Ġà²§à²°": 1192,
      "§à³": 1193,
      "à²¨à²¦à²²": 1194,
      "à¤ķà¤¨": 1195,
      "Ġà²Ĵà²³": 1196,
      "ord": 1197,
      "Ġà²ĩà²¦à²¨": 1198,
      "à¤¹à¤®": 1199,
      "),": 1200,
      "à²Ĺà²¦à²²": 1201,
      "Ġà²¨à²Ł": 1202,
      "à²°à²Ń": 1203,
      "ions": 1204,
      "Ġà¤īà¤ªà¤¯": 1205,
      "à²®à²µ": 1206,
      "à²¨à²°": 1207,
      "à¤¸à¤ª": 1208,
      "Ġà²®à²¦": 1209,
      "Ġà¤ĩà¤¸à¤®": 1210,
      "Ġ17": 1211,
      "oun": 1212,
      "Ġà¤§à¤°": 1213,
      "Ġà¥§à¥": 1214,
      "Ġ25": 1215,
      "Ġà²¸à²Ń": 1216,
      "ther": 1217,
      "Ġà²¬à²¦": 1218,
      "Ġà¤°à¤¹à¤¨": 1219,
      "Ġà²Ĭ": 1220,
      "ure": 1221,
      "Ġà¤®à¤¤": 1222,
      "Ġà²ĩà²¤à²°": 1223,
      "à²¯à²µà²¸": 1224,
      "Ġà²µà²°à²¦": 1225,
      "Ġà¤Ĩà¤µà¤¶": 1226,
      "à²¸à²µ": 1227,
      "Ġà¤¸à¤ļ": 1228,
      "ff": 1229,
      "Ġ14": 1230,
      "à²¨à²¸": 1231,
      "à²ªà²ķ": 1232,
      "à²¶à²¦à²²": 1233,
      "Ġ13": 1234,
      "Ġun": 1235,
      "Ġà²¨à²¨à²Ĺ": 1236,
      "Ġà¤¹à¤ľ": 1237,
      "à²¦à²Ĺ": 1238,
      "Ġà²¬à²²": 1239,
      "à¤ĩà¤¸": 1240,
      "ight": 1241,
      "Ġà¤¸à¤«": 1242,
      "Ġà²µà²¸": 1243,
      "Ġtr": 1244,
      "à²Ī": 1245,
      "Ġar": 1246,
      "Ġà²ħà²Ĺà²¤": 1247,
      "Ġà²Ĵà²³à²Ĺ": 1248,
      "hed": 1249,
      "Ġà²®à²Ĺ": 1250,
      "à²¸à²ķ": 1251,
      "à²¶à²µ": 1252,
      "so": 1253,
      "cl": 1254,
      "ie": 1255,
      "ous": 1256,
      "à²³à²¬": 1257,
      "low": 1258,
      "à²¨à²µà²¨": 1259,
      "à¤¶à¤²": 1260,
      "à¤¨à¤µ": 1261,
      "à²¹à²¤": 1262,
      "à²ķà²¦": 1263,
      "Ġj": 1264,
      "irst": 1265,
      "ue": 1266,
      "à¤ĩà¤²": 1267,
      "Ġ50": 1268,
      "à¤¯à¤ª": 1269,
      "à¤ļà¤°": 1270,
      "ire": 1271,
      "Ġà²¦à²°": 1272,
      "Ġà²Ĵà²¬": 1273,
      "Ġà¤¸à¤¦à¤¸": 1274,
      "Ġà¤ħà¤²à¤Ĺ": 1275,
      "Ġà²ĺà²Łà²¨": 1276,
      "à²¯à²ª": 1277,
      "Ġà¤¸à¤²": 1278,
      "à¤Ńà¤µ": 1279,
      "ĠTh": 1280,
      "ews": 1281,
      "à¤¤à¤µ": 1282,
      "Ġà²İà²·": 1283,
      "à³į'": 1284,
      "à¤·à¤ķ": 1285,
      "à²¹à²²": 1286,
      "à²·à²¤": 1287,
      "ĠY": 1288,
      "à¥ĭà¤Ĥ,": 1289,
      "à²ķà²·": 1290,
      "Ġà²İà²ļ": 1291,
      "Ġits": 1292,
      "Ġà²ħà²µà²ķ": 1293,
      "own": 1294,
      "Ġà¤°à¤¨": 1295,
      "à¤ĸà¤¤": 1296,
      "Ġà²¤à²°": 1297,
      "Ġint": 1298,
      "Ġus": 1299,
      "Ġtheir": 1300,
      "Ġà¤ķà¤¹à¤¤": 1301,
      "à²¡à²µ": 1302,
      "Ġà¤ħà¤Ĺ": 1303,
      "Ġà²Ĵà²Ł": 1304,
      "Ġà²Ĩà²¹": 1305,
      "Ġà²ĩà²¦à²ķ": 1306,
      "orm": 1307,
      "Ġcl": 1308,
      "à¤ľà¤²": 1309,
      "ould": 1310,
      "Ġà²ĸà²°": 1311,
      "Ġà²¸à²¦à²¸": 1312,
      "à²·à²ķ": 1313,
      "Ġà¤ıà¤¸": 1314,
      "Ġà¤¸à¤µ": 1315,
      "à²¦à²³": 1316,
      "à²£à²¦à²²": 1317,
      "ge": 1318,
      "ome": 1319,
      "à¤ľà¤¹": 1320,
      "à¤ªà¤¸": 1321,
      "à²¶à²Ĺà²³": 1322,
      "à¤łà¤ķ": 1323,
      "à³ĭà²Ĥ": 1324,
      "Ġà²¬à²¸": 1325,
      "à¤łà¤¨": 1326,
      "Ġcont": 1327,
      "Ġà¤µà¤¸": 1328,
      "Ġà²Ĩà²Ł": 1329,
      "Ġab": 1330,
      "Ġà¤ķà¤°à¤ķ": 1331,
      "are": 1332,
      "à¥ĩ-": 1333,
      "Ġà¤ªà¤ķ": 1334,
      "Ġad": 1335,
      "à²Łà²²": 1336,
      "Ġà¤Ĩà¤®": 1337,
      "Ġà¤«à¤°": 1338,
      "ond": 1339,
      "Ġà²Ĵà²¤": 1340,
      "Ġà¤ķà¤Ń": 1341,
      "ance": 1342,
      "wo": 1343,
      "Ġbut": 1344,
      "à¤°à¤ª": 1345,
      "Ġcomp": 1346,
      "Ġà¤²à¤ķ": 1347,
      "Ġà¤ķà¤¹à¤¨": 1348,
      "Ġà²®à²²": 1349,
      "Ġalso": 1350,
      "fter": 1351,
      "à²¹à²¨": 1352,
      "Ġwhe": 1353,
      "age": 1354,
      "à²µà²µ": 1355,
      "Ġà¤®à¤¹à¤¤": 1356,
      "Ġà¤ĩà¤¨à¤ķ": 1357,
      "ass": 1358,
      "out": 1359,
      "Ġà¤®à¤§": 1360,
      "Ġà¤ĩà¤¤à¤¨": 1361,
      "Ġro": 1362,
      "Ġà²Ĩà²¨": 1363,
      "à²°à²¤à²¦": 1364,
      "à¤¸à¤¸": 1365,
      "Ġà¤ľà¤Ĺà¤¹": 1366,
      "Ġà²¸à²°à²ķ": 1367,
      "à²£à²¨": 1368,
      "Ġà²ıà²°": 1369,
      "à²Ĩà²°": 1370,
      "Ġà¤®à¤°": 1371,
      "ice": 1372,
      "à²®à²²": 1373,
      "Ġfirst": 1374,
      "Ġà²¬à²³à²¸": 1375,
      "à¤§à¤°": 1376,
      "Ġà¤ļà¤°": 1377,
      "Ġà¤ªà¤¶": 1378,
      "ime": 1379,
      "Ġà¤°à¤ĸà¤¨": 1380,
      "Ġà¤®à¤¦à¤¦": 1381,
      "Ġà¤īà¤ļ": 1382,
      "ĠâĢĵ": 1383,
      "ted": 1384,
      "à²¦à²¦": 1385,
      "à²¹à²°": 1386,
      "à²İà²²": 1387,
      "à²°à²£à²µ": 1388,
      "à¤ľà¤¸": 1389,
      "à¤¨à¤°": 1390,
      "à²¯à²Ĺà²³à²¨": 1391,
      "iss": 1392,
      "Ġà¤ªà¤¢": 1393,
      "ork": 1394,
      "ans": 1395,
      "Ġà¤¶à¤¹à¤°": 1396,
      "Ġà²Ĵà²ª": 1397,
      "Ġher": 1398,
      "à¤Łà¤®": 1399,
      "Ġà¤ľà¤¬à¤ķ": 1400,
      "ib": 1401,
      "Ġà²ħà²·": 1402,
      "à¤µà¤ª": 1403,
      "à¤·à¤¯": 1404,
      "à¤°à¤¦à¤°": 1405,
      "Ġà²ħà²¦à²ķ": 1406,
      "à²°à²¯à²¤": 1407,
      "Ġà¤Ĩà¤ı": 1408,
      "à¥Ģà¤Ĥ,": 1409,
      "Ġà¤¸à¤®à¤¸": 1410,
      "Ġà²ħà²µà²³": 1411,
      "ĠAl": 1412,
      "ater": 1413,
      "Ġà²ķà²¤": 1414,
      "Ġà¤¨à¤µ": 1415,
      "Ġà¤īà¤¸à¤¨": 1416,
      "Ġà¤ĳà¤«": 1417,
      "any": 1418,
      "Ġà¤ľà¤¨à¤¤": 1419,
      "Ġhave": 1420,
      "Ġà²¬à²¹à²³": 1421,
      "mer": 1422,
      "à³ĩ.": 1423,
      "à¤²à¤°": 1424,
      "Ġà²ĩà²·": 1425,
      "Ġà²¨à²Ĺà²°": 1426,
      "à¤Ĺà¤µ": 1427,
      "Ġ24": 1428,
      "Ġà²¨à²Ĺ": 1429,
      "ory": 1430,
      "à²¿'": 1431,
      "Ġà¤¢": 1432,
      "Ġà²¹à²³": 1433,
      "à²®à²¯": 1434,
      "à²·à²°": 1435,
      "à¤°à¤ľ": 1436,
      "Ġà¤¬à¤¸": 1437,
      "pl": 1438,
      "à¤²à¤µ": 1439,
      "iz": 1440,
      "Ġà²ĩà²¬": 1441,
      "à²¡à²¬à²¹": 1442,
      "à¤®à¤¦": 1443,
      "ign": 1444,
      "ey": 1445,
      "Ġà¤¨à¤ľà¤°": 1446,
      "ach": 1447,
      "ric": 1448,
      "à¤¯à¤¸": 1449,
      "à²¨à²ª": 1450,
      "Ġres": 1451,
      "ite": 1452,
      "à¤Ĩà¤°": 1453,
      "Ġà²¶à²ķ": 1454,
      "19": 1455,
      "à²¨à²¤": 1456,
      "à²Ĺà²¬": 1457,
      "à²³à²µ": 1458,
      "à²Ľ": 1459,
      "Ġà¤Ĩà¤¶": 1460,
      "ry": 1461,
      "à¥Ĥà¤ģ": 1462,
      "aj": 1463,
      "ence": 1464,
      "à¤ľà¤¯": 1465,
      "à²·à²µ": 1466,
      "Ġà²Ĩà²«": 1467,
      "Ġà¤¶à¤ķ": 1468,
      "Ġà²®à²³": 1469,
      "à¥Ģà¤Ĥà¥¤": 1470,
      "Ġà²®à²Ł": 1471,
      "oug": 1472,
      "ob": 1473,
      "Ġà²®à²¨à²¸": 1474,
      "Ġup": 1475,
      "à²¬à²³": 1476,
      "à²¢": 1477,
      "à¤Ĺà¤®": 1478,
      "Ġà¤ļà¤²à¤¤": 1479,
      "Ġwho": 1480,
      "à²Ĥ.": 1481,
      "Ġà¤īà¤²": 1482,
      "Ġà¤¬à¤¦à¤²": 1483,
      "à¤¬à¤¹": 1484,
      "Ġà²¬à²¡": 1485,
      "à¤¥à¤µ": 1486,
      "Ġhas": 1487,
      "à²Ĺà²¨": 1488,
      "Ġà¤¨à¤Ĺà¤°": 1489,
      "ations": 1490,
      "Ġà¤µà¤ķ": 1491,
      "Ġà¤µà¤ľà¤¹": 1492,
      "Ġà¤²à¤Ĺà¤¤": 1493,
      "ree": 1494,
      "à²²à²Ń": 1495,
      "Ġwe": 1496,
      "Ġbeen": 1497,
      "à³Ĩà²ĥ": 1498,
      "à²¤à²ªà²¡": 1499,
      "à¤ıà¤²": 1500,
      "à¤®à¤ļ": 1501,
      "Ġà²ĵà²¦": 1502,
      "Ġà¥¨": 1503,
      "à²·à²ķà²°": 1504,
      "ĠHe": 1505,
      "ile": 1506,
      "à¤Ńà¤Ĺ": 1507,
      "Ġrec": 1508,
      "Ġà²Ĩà²§": 1509,
      "ru": 1510,
      "ade": 1511,
      "à²°à²ļ": 1512,
      "Ġà¤¤à¤¤": 1513,
      "Ġall": 1514,
      "à¤°à¤«": 1515,
      "Ġà¤Ĩà¤ķ": 1516,
      "ition": 1517,
      "Ġà²Ĩà²¶": 1518,
      "Ġà¤¤à¤¹à¤¤": 1519,
      "Ġthis": 1520,
      "à¤ĩà¤ķ": 1521,
      "Ġsc": 1522,
      "pt": 1523,
      "ann": 1524,
      "ress": 1525,
      "port": 1526,
      "ction": 1527,
      "Ġà¤¨à¤ı": 1528,
      "uring": 1529,
      "à¤¦à¤®": 1530,
      "Ġà¤Ĩà¤¸": 1531,
      "ally": 1532,
      "te": 1533,
      "à¤¹à¤²": 1534,
      "Ġthey": 1535,
      "Ġà²¹à²¸": 1536,
      "Ġone": 1537,
      "Ġapp": 1538,
      "erv": 1539,
      "land": 1540,
      "per": 1541,
      "Ġà²¯à²¶": 1542,
      "Ġà²¨à²®à²Ĺ": 1543,
      "aw": 1544,
      "Ġac": 1545,
      "Ġà¤¸à¤®à¤°": 1546,
      "Ġà¤°à¤µ": 1547,
      "Ġà¤§à¤¨": 1548,
      "Ġà²ķà²¥": 1549,
      "Ġà²¤à²¯": 1550,
      "ai": 1551,
      "Ġà²¤à²¡": 1552,
      "ough": 1553,
      "à²¾?": 1554,
      "à²³à²¦": 1555,
      "Ġà¤ľà¤µ": 1556,
      "Ġà¤²à¤Ĺà¤Ńà¤Ĺ": 1557,
      "ah": 1558,
      "uch": 1559,
      "à²Ĺà²£": 1560,
      "Ġplay": 1561,
      "à¤ªà¤ı": 1562,
      "Ġà¤ĸà¤¬à¤°": 1563,
      "à¤¶à¤¤": 1564,
      "Ġ21": 1565,
      "à²ķà²¤": 1566,
      "à¤Ĺà¤¨": 1567,
      "Ġà¤¸à¤ª": 1568,
      "olog": 1569,
      "à¤Ĭ": 1570,
      "à¤ķà¤Ł": 1571,
      "à²®à²£": 1572,
      "Ġper": 1573,
      "Ġà²µà²¹": 1574,
      "à³Ĩ'": 1575,
      "Ġen": 1576,
      "Ġà¤¦à¤²": 1577,
      "Ġbec": 1578,
      "à³į-": 1579,
      "Ġà¤°à¤ķ": 1580,
      "à²ľà²µ": 1581,
      "Ġà¤¤à¤°à¤«": 1582,
      "à¥¨": 1583,
      "ail": 1584,
      "Ġà²¬à²³à²ķ": 1585,
      "hn": 1586,
      "à¤Ĩà¤¤": 1587,
      "à³Ģà²Ĥ": 1588,
      "Ġà²ķà²®": 1589,
      "à³Įà²Ĥ": 1590,
      "ult": 1591,
      "à³Ĩ!": 1592,
      "Ġà¤¨à¤°": 1593,
      "ace": 1594,
      "Ġ100": 1595,
      "à¤¥à¤¨": 1596,
      "ark": 1597,
      "à²¸à²Ĺ": 1598,
      "Ġdes": 1599,
      "à²²à²¯": 1600,
      "à¤¥à¤®": 1601,
      "à²ľà²¯": 1602,
      "Ġ22": 1603,
      "à²µà²ľà²¨": 1604,
      "à²¯à²¬": 1605,
      "Ġà²Ĵà²¦à²Ĺ": 1606,
      "Ġ199": 1607,
      "à¤ıà¤ķ": 1608,
      "...": 1609,
      "over": 1610,
      "Ġà¤ĩà¤¤": 1611,
      "à¤¨à¤¦": 1612,
      "à²Łà²¦à²²": 1613,
      "Ġà²ĩà²¡": 1614,
      "à²Ĵ": 1615,
      "Ġà¤¤à¤¸": 1616,
      "à²¨à²®": 1617,
      "Ġà¤¨à¤Ī": 1618,
      "ugh": 1619,
      "ely": 1620,
      "à²°à²Ĺà²³à²¨": 1621,
      "Ġim": 1622,
      "à¤¬à¤¸": 1623,
      "Ġà¤¶à¤¬": 1624,
      "Ġà¤¸à¤¨": 1625,
      "Ġtwo": 1626,
      "à¤¬à¤Ī": 1627,
      "Ġother": 1628,
      "oy": 1629,
      "Ġà²¸à²®à²¯à²¦à²²": 1630,
      "à²¿-": 1631,
      "à²²à²¦à²²": 1632,
      "à²¯à²£": 1633,
      "à¤¼à¥ĭà¤Ĥ": 1634,
      "Ġà²Ĺà²£": 1635,
      "à¤ıà¤¨": 1636,
      "one": 1637,
      "Ġatt": 1638,
      "Ġà¤ķà¤¬": 1639,
      "à²³à²ķ": 1640,
      "Ġà³§à³": 1641,
      "à¥ĭà¥¤": 1642,
      "à²¬à²¦": 1643,
      "clud": 1644,
      "à¤·à¤¤": 1645,
      "à²ī": 1646,
      "Ġà²°à²¨": 1647,
      "urn": 1648,
      "ĠOn": 1649,
      "act": 1650,
      "Ġout": 1651,
      "ĠAn": 1652,
      "Ġyear": 1653,
      "Ġdis": 1654,
      "à²µà²¯": 1655,
      "Ġtime": 1656,
      "Ġmore": 1657,
      "fer": 1658,
      "à¤¸à¤¤": 1659,
      "Ġà¤µà¤¨": 1660,
      "Ġà¤¹à¤®à¤²": 1661,
      "Ġà¤īà¤ªà¤²à¤¬": 1662,
      "Ġafter": 1663,
      "ara": 1664,
      "Ġpart": 1665,
      "Ġà²Ĺà²°": 1666,
      "we": 1667,
      "Ġà²¨à²µ": 1668,
      "Ġ2022": 1669,
      "ember": 1670,
      "ph": 1671,
      "à¤¹à¤¤à¤°": 1672,
      "Ġà¤Ĩà¤²": 1673,
      "Ġover": 1674,
      "ollow": 1675,
      "à¤ļà¤²": 1676,
      "Ġne": 1677,
      "ĠIt": 1678,
      "à¤¯à¤ķà¤¤": 1679,
      "ound": 1680,
      "à²°à²µà²°": 1681,
      "rib": 1682,
      "Ġà¤¹à¤Ł": 1683,
      "à²²à²µà²°": 1684,
      "à²¹à²¦": 1685,
      "à¤²à¤Ĺ": 1686,
      "ake": 1687,
      "Ġà²¸à²£": 1688,
      "à¤µà¤°à¤£": 1689,
      "Ġà²¬à²£": 1690,
      "Ġà¤ħà¤«": 1691,
      "ubl": 1692,
      "à²²à²¯à²¦": 1693,
      "ath": 1694,
      "à¤°à¤ĸ": 1695,
      "Ġà²Ĩà²¡": 1696,
      "Ġà¤Ńà¤Ĺà¤µ": 1697,
      "Ġà²¦à²ķ": 1698,
      "ana": 1699,
      "Ġam": 1700,
      "à²ĸà²°": 1701,
      "à³ĩ,": 1702,
      "ics": 1703,
      "Ġà²İà²¤": 1704,
      "à¤®à¤µ": 1705,
      "à¤·à¤¦": 1706,
      "à²¨à²Ĺ": 1707,
      "Ġà¤®à¤¸": 1708,
      "à²Ĺà²ķ": 1709,
      "à²£à²ķ": 1710,
      "à¤¼à¥ĭ": 1711,
      "à³Ĩ.\\": 1712,
      "ren": 1713,
      "à²¨à²Ĺà²³à²²": 1714,
      "Ġà¤Ĺà¤¤": 1715,
      ".@": 1716,
      "à²®à²¸": 1717,
      "à²ļà²°à²£": 1718,
      "Ġ23": 1719,
      "Ġ@.@": 1720,
      "Ġ26": 1721,
      "Ġinclud": 1722,
      "har": 1723,
      "ens": 1724,
      "Ġà²ķà²ļ": 1725,
      "Ġà²īà²¡": 1726,
      "Ġ40": 1727,
      "ood": 1728,
      "Ġà²°à²²": 1729,
      "Ġà¤ĸà¤¡": 1730,
      "ss": 1731,
      "Ġà¤¹à¤¤": 1732,
      "Ġ28": 1733,
      "ase": 1734,
      "à²ªà²·": 1735,
      "à²£à²Ĺ": 1736,
      "à²°à²¦à²°": 1737,
      "Ġte": 1738,
      "Ġà²Ńà²µ": 1739,
      "à³ģ-": 1740,
      "Ġà¤¸à¤¡": 1741,
      "ased": 1742,
      "Ġpre": 1743,
      "man": 1744,
      "Ġev": 1745,
      "Ġà¤Ĭà¤ªà¤°": 1746,
      "Ġà²ł": 1747,
      "à²¡à²ķ": 1748,
      "Ġà²Ńà²ķ": 1749,
      "Ġà¤¨à¤¦": 1750,
      "à¤®à¤Ĺ": 1751,
      "Ġà²ķà²·": 1752,
      "Ġà²ħà²Ĺ": 1753,
      "à¤Ĺà¤łà¤¨": 1754,
      "à¥Įà¤Ĥ": 1755,
      "à¤µà¤¯": 1756,
      "Ġà²Ĩà²²": 1757,
      "Ġà¤ıà¤¨": 1758,
      "--": 1759,
      "ook": 1760,
      "à¤²à¤ķà¤°": 1761,
      "Ġà¤ħà¤¦": 1762,
      "Ġà²¤à²ķ": 1763,
      "Ġà²Ĩà²¡à²³": 1764,
      "ick": 1765,
      "able": 1766,
      "ĠUn": 1767,
      "les": 1768,
      "Ġ#": 1769,
      "ĠRe": 1770,
      "à³ģ'": 1771,
      "Ġà¤¨à¤¯": 1772,
      "Ġà¤ıà¤®": 1773,
      "Ġà²İà²°à²¡à²¨": 1774,
      "vi": 1775,
      "Ġà²īà²²": 1776,
      "à¤¹à¤¸": 1777,
      "Ġà²ħà²¶": 1778,
      "à²¶à²µà²¨": 1779,
      "ari": 1780,
      "tern": 1781,
      "à¥Ģ)": 1782,
      "ors": 1783,
      "Ġdo": 1784,
      "ix": 1785,
      "à²Ĺà²Ĺà²³": 1786,
      "à¤°à¤ªà¤¤": 1787,
      "Ġà²®à²¨à²µ": 1788,
      "Ġà²¸à²µ": 1789,
      "à²·à²¯": 1790,
      "Ġà¤ªà¤¸": 1791,
      "ates": 1792,
      "amp": 1793,
      "à¤°à¤²": 1794,
      "à¤°à¤¬": 1795,
      "à¤ªà¤²": 1796,
      "ents": 1797,
      "Ġà²ħà²µà²§": 1798,
      "Ġinto": 1799,
      "à²¯à²Ĺ": 1800,
      "à²Ńà²Łà²¨": 1801,
      "ings": 1802,
      "Ġme": 1803,
      "Ġà²¯à²¶à²¸": 1804,
      "à³ĩ?": 1805,
      "Ġ27": 1806,
      "Ġfollow": 1807,
      "à²°à²£à²ķ": 1808,
      "à¤µà¤ľ": 1809,
      "ĠInd": 1810,
      "wn": 1811,
      "à¤ªà¤£": 1812,
      "Ġwould": 1813,
      "ount": 1814,
      "à²²à²µà²¨": 1815,
      "Ġà¤ĭ": 1816,
      "à¤§à¤µ": 1817,
      "Ġcomm": 1818,
      "à¤¾'": 1819,
      "à³ģ!": 1820,
      "à²¦à²°à²²": 1821,
      "à²§à²¤": 1822,
      "Ġà²ĩà²³": 1823,
      "à²²à²¤": 1824,
      "à¤¥à¤²": 1825,
      "Ġà²®à²¹à²¤": 1826,
      "à²¤à²Ĺ": 1827,
      "Ġà¤ªà¤°à¤®": 1828,
      "à¥§": 1829,
      "ank": 1830,
      "ward": 1831,
      "Ġoff": 1832,
      "anc": 1833,
      "50": 1834,
      "ied": 1835,
      "Ġà²¨à²°": 1836,
      "Ġà¤¬à¤¯": 1837,
      "Ġà²²à²Ń": 1838,
      "Ġà¤ķà¤°à¤µ": 1839,
      "à²¸à²ķà²°": 1840,
      "à¤¨à¤¸à¤Ń": 1841,
      "à²¤à²¦à²²": 1842,
      "Ġà¤¦à¤ķ": 1843,
      "à¤Ńà¤°": 1844,
      "ited": 1845,
      "inal": 1846,
      "Ġwork": 1847,
      "Ġhim": 1848,
      "Ġà²¬à²¯à²¸": 1849,
      "à¤¸à¤µ": 1850,
      "Ġà²®à²£": 1851,
      "Ġà²¸à²ķ": 1852,
      "Ġà²ľà²¤": 1853,
      "rop": 1854,
      "Ġ2023": 1855,
      "à¤¯à¤¹": 1856,
      "Ġà¤ħà¤ªà¤°": 1857,
      "à¤¼à¥į": 1858,
      "ason": 1859,
      "oin": 1860,
      "Ġà²Ķ": 1861,
      "à²Ĺà²®": 1862,
      "à³ģ;": 1863,
      "à²ªà²µ": 1864,
      "Ġà²ķà²ª": 1865,
      "form": 1866,
      "à³¨": 1867,
      "à³Ĩ\"": 1868,
      "Ġà¤¹à¤µ": 1869,
      "à¤ĩà¤¡": 1870,
      "old": 1871,
      "ose": 1872,
      "à¤®à¤¸": 1873,
      "Ġà¤¦à¤µ": 1874,
      "Ġà¤ħà¤ľ": 1875,
      "à²¥à²®": 1876,
      "à²£à²®": 1877,
      "Ġcent": 1878,
      "à¤īà¤¨": 1879,
      "à¥§à¥": 1880,
      "à²°à²·": 1881,
      "vel": 1882,
      "Ġà¤ķà¤Ł": 1883,
      "Ġà¤Ĩà¤ĸ": 1884,
      "Ġà²¦à²²": 1885,
      "à²µà²µà²¨": 1886,
      "Ġà²«à²²": 1887,
      "à¤²à¤¸": 1888,
      "ild": 1889,
      "Ġà²ĩà²Ł": 1890,
      "Ġà¤Ĺà¤£": 1891,
      "à¥¬": 1892,
      "à¤Ĺà¤¢": 1893,
      "Ġshe": 1894,
      "Ġkn": 1895,
      "Ġà²ħà²¦à²°à²²": 1896,
      "Ġthem": 1897,
      "ĠSh": 1898,
      "ĠThis": 1899,
      "à¥©": 1900,
      "à²¿)": 1901,
      "à¤°à¤®à¤£": 1902,
      "à¥Ī?": 1903,
      "Ġà²Ĩà²¤à²¨": 1904,
      "à²¹à²³": 1905,
      "à²¥à²°": 1906,
      "ished": 1907,
      "Ġrel": 1908,
      "Ġà³¨": 1909,
      "à¤¹à¤ķ": 1910,
      "à¤¦à¤¯": 1911,
      "Ġà¤Ńà¤µ": 1912,
      "Ġ2020": 1913,
      "Ġà¤ħà¤¶": 1914,
      "Ġsec": 1915,
      "rough": 1916,
      "à¥«": 1917,
      "Ġà²Ĩà²Ĺà²²": 1918,
      "ane": 1919,
      "Ġ198": 1920,
      "under": 1921,
      "Ġmost": 1922,
      "Ġà²°à²µ": 1923,
      "Ġ||": 1924,
      "à¤ªà¤®": 1925,
      "Ġà¤ħà¤¥à¤µ": 1926,
      "à³į)": 1927,
      "à²®à²Ĺà²³": 1928,
      ",@": 1929,
      "Ġà¤ķà¤¨": 1930,
      "Ġ@,@": 1931,
      "à²³à²¬à²¹": 1932,
      "Ġà²¸à²¨": 1933,
      "ĠEn": 1934,
      "à²§à²¦": 1935,
      "ash": 1936,
      "ode": 1937,
      "Ġ2021": 1938,
      "Ġà²¹à²ķ": 1939,
      "ĠAr": 1940,
      "ĠMar": 1941,
      "10": 1942,
      "aus": 1943,
      "sh": 1944,
      "à¥ª": 1945,
      "à²°à²¬à²¹": 1946,
      "Ġear": 1947,
      "ock": 1948,
      "à²¬à²¨": 1949,
      "Ġfe": 1950,
      "Ġra": 1951,
      "Ġrem": 1952,
      "Ġpe": 1953,
      "à²Łà²µà²¨": 1954,
      "Ġà²µà²¯à²¸": 1955,
      "Ġà¥¤à¥¤": 1956,
      "Ġà¤®à¤ľà¤¬": 1957,
      "reat": 1958,
      "Ġà¤¸à¤¹à¤¯": 1959,
      "):": 1960,
      "att": 1961,
      "ron": 1962,
      "à²Ĺà²Ł": 1963,
      "Ġà¥§": 1964,
      "Ġabout": 1965,
      "à²°à²Ĺà²³à²²": 1966,
      "Ġgame": 1967,
      "az": 1968,
      "à²°à²Ł": 1969,
      "Ġà¤°à¤¸": 1970,
      "Ġsong": 1971,
      "à²°à²¤à²¦à²²": 1972,
      "à²°à²ķà²Ł": 1973,
      "Ġ197": 1974,
      "à²ĺà²Łà²¨": 1975,
      "Ġwhen": 1976,
      "als": 1977,
      "Ġcons": 1978,
      "Ġà²ĵà²¡": 1979,
      "Ġà¤īà¤¸à¤¸": 1980,
      "uk": 1981,
      "ina": 1982,
      "orth": 1983,
      "ilm": 1984,
      "ĠCom": 1985,
      "gan": 1986,
      "à¤¦à¤Ĺ": 1987,
      "Ġ*": 1988,
      "à¥ģà¤ģ": 1989,
      "Ġà¤¤à¤²": 1990,
      "Ġ29": 1991,
      "à¤®à¤£": 1992,
      "à³ģ)": 1993,
      "Ġà²ĩà²°à²²": 1994,
      "Ġ31": 1995,
      "Ġqu": 1996,
      "à¤ªà¤·": 1997,
      "orld": 1998,
      "Ġà¤ıà¤²": 1999,
      "Ġind": 2000,
      "Ġman": 2001,
      "Ġduring": 2002,
      "Ġonly": 2003,
      "Ġà²Ĩà²Łà²Ĺ": 2004,
      "Ġbet": 2005,
      "Ġà¤ªà¤ķà¤¡": 2006,
      "ek": 2007,
      "à¤ļà¤ķ": 2008,
      "à²¤à²°à²µ": 2009,
      "Ġà¥©": 2010,
      "ational": 2011,
      "à²ªà²¸": 2012,
      "Ġà²İà²ķ": 2013,
      "à¤¦à¤ķ": 2014,
      "ered": 2015,
      "Ġà²¸à²²à²¹": 2016,
      "à²¨à²¸à²Ń": 2017,
      "à³§": 2018,
      "à²®à²¹à²¤": 2019,
      "à¤ľà¤Ĺ": 2020,
      "Ġà²Ĵà²¡": 2021,
      "Ġ2019": 2022,
      "ology": 2023,
      "à²¹à²ķà²°": 2024,
      "round": 2025,
      "ments": 2026,
      "à²¯à²¦à²°": 2027,
      "Ġà²ħà²ªà²°": 2028,
      "way": 2029,
      "à¤¨à¤Ī": 2030,
      "Ġpr": 2031,
      "Ġà¤īà¤¸à¤®": 2032,
      "duc": 2033,
      "à¤§à¤ķ": 2034,
      "Ġ[": 2035,
      "Ġà²¥": 2036,
      "Ġà¤ıà¤ľ": 2037,
      "à¤ĸà¤°": 2038,
      "Ġdec": 2039,
      "Ġà²Ĭà²°": 2040,
      "à³§à³": 2041,
      "ons": 2042,
      "à²ªà²²": 2043,
      "Ġà¤ħà¤Ĺà¤²": 2044,
      "Ġmin": 2045,
      "outh": 2046,
      "Ġà²§à²¨": 2047,
      "ters": 2048,
      "Ġà²Ĺà²³à²¨": 2049,
      "à²ªà²£": 2050,
      "à²¹à²¸": 2051,
      "Ø§": 2052,
      "Ġà²¹à²¬": 2053,
      "Ġà¤ıà¤¡": 2054,
      "à³įà²ĥ": 2055,
      "à²Ĺà²µà²¨": 2056,
      "bs": 2057,
      "à³ģ\"": 2058,
      "ral": 2059,
      "Ġà¤¦à¤¸": 2060,
      "à²Ĺà²¬à²¹": 2061,
      "Ġà¤®à¤²": 2062,
      "ener": 2063,
      "Ġmov": 2064,
      "à²Łà²ķà²¦": 2065,
      "à¤ĺà¤°": 2066,
      "à²Ĺà²µà²¹": 2067,
      "ae": 2068,
      "Ġà²ķà²µ": 2069,
      "Ġsup": 2070,
      "Ġà²īà²ļ": 2071,
      "Ġà²ĩà²¦à²°à²²": 2072,
      "Ġà²¨à²Ĺà²°à²¦": 2073,
      "Ġà²ħà²¬": 2074,
      "Ġà¤ħà¤µà¤¸à¤°": 2075,
      "à³į!": 2076,
      "à²Ĺà²¸": 2077,
      "à²¦à²µà²¨": 2078,
      "à³Ĩ-": 2079,
      "à¤µà¤µ": 2080,
      "Ġà²ħà²ľ": 2081,
      "à²ªà²¦à²²": 2082,
      "Ġà¤Ĩà¤ķà¤°": 2083,
      "oss": 2084,
      "30": 2085,
      "à¤ľà¤ķ": 2086,
      "Ġà²¯à²¡": 2087,
      "Ġà¤ķà¤µ": 2088,
      "Ġà²¹à²¨": 2089,
      "Ġà¤¦à¤¬": 2090,
      "Ġunder": 2091,
      "Ġà²¬à²°à²²": 2092,
      "Ġà²¸à²®à²¯": 2093,
      "Ġà²ļà²Ł": 2094,
      "Ġà¤°à¤ĸà¤¤": 2095,
      "ision": 2096,
      "Ġany": 2097,
      "cess": 2098,
      "ll": 2099,
      "à²¿!": 2100,
      "à¤¹à¤¦": 2101,
      "à¤Ĺà¤¡": 2102,
      "ati": 2103,
      "orn": 2104,
      "Ġà¤¸à¤ľ": 2105,
      "Ġchar": 2106,
      "Ġent": 2107,
      "Ġà²®à²¸": 2108,
      "Ġà¤īà¤ªà¤¸": 2109,
      "Ġvi": 2110,
      "Ġagain": 2111,
      "Ġà¤¹à¤²": 2112,
      "ating": 2113,
      "à¥®": 2114,
      "Ġà¤®à¤Ī": 2115,
      "à¤ªà¤¦": 2116,
      "Ġà¤ħà¤¹à¤®": 2117,
      "Ġrele": 2118,
      "ury": 2119,
      "ĠLe": 2120,
      "ular": 2121,
      "Ġà²Ĳà²¦": 2122,
      "Ġà²·": 2123,
      "Ġà²¸à²°à²£": 2124,
      "à¤ľà¤®": 2125,
      "à³ģ.\\": 2126,
      "à¤£à¤¨": 2127,
      "Ġà¤«à¤²": 2128,
      "Ġnew": 2129,
      "Ġ196": 2130,
      "Ġseason": 2131,
      "its": 2132,
      "à²µà²Ł": 2133,
      "à²µà²¦à²²": 2134,
      "à¤ľà¤§": 2135,
      "Ġà²¨à²¦": 2136,
      "à¤§à¤¤": 2137,
      "Ġass": 2138,
      "meric": 2139,
      "Ġà²ĭ": 2140,
      "Ġà²ħà²ļ": 2141,
      "à²¹à²°à²£": 2142,
      "enc": 2143,
      "Ġpol": 2144,
      "du": 2145,
      "fore": 2146,
      "à²¦à²¯": 2147,
      "Ġà¤¤à¤®": 2148,
      "erm": 2149,
      "Ġà²¶à²°": 2150,
      "ween": 2151,
      "ual": 2152,
      "à¤¨à¤ª": 2153,
      "Ġà¤¶à¤¨": 2154,
      "à¤ĸà¤ķà¤°": 2155,
      "arn": 2156,
      "ĠZ": 2157,
      "à¤Ĥà¥¤": 2158,
      "à²¯à²¯à²¨": 2159,
      "Ġà²¹à²²": 2160,
      "Ġfl": 2161,
      "Ġ194": 2162,
      "à¤¯à¤°à¤²": 2163,
      "Ġà²¸à²¹à²ķ": 2164,
      "à²°à²¶à²¸": 2165,
      "à²µà²°à²¨": 2166,
      "Ġwrit": 2167,
      "ames": 2168,
      "Ġret": 2169,
      "oth": 2170,
      "Ġà²Ĩà²®": 2171,
      "Ġpubl": 2172,
      "ÙĦ": 2173,
      "ier": 2174,
      "à¤¦à¤¸": 2175,
      "Ġà²ľà²®": 2176,
      "Ġser": 2177,
      "Ġà²Ńà²¦": 2178,
      "ever": 2179,
      "Ġà²°à²ļ": 2180,
      "Ġà²®à²¤à²¦": 2181,
      "ĠSp": 2182,
      "ert": 2183,
      "Ġà²Ĺà²¡": 2184,
      "à¤ĩà¤¯": 2185,
      "Ġà²ľà²¨à²ª": 2186,
      "Ġdef": 2187,
      "Ġà²¤à²¤": 2188,
      "Ġà²Ĩà²µ": 2189,
      "Ġsub": 2190,
      "Ġmade": 2191,
      "à¤¯à¤ķà¤°": 2192,
      "hen": 2193,
      "Ġà¤¶à¤µ": 2194,
      "Ġso": 2195,
      "Ġend": 2196,
      "à¤¡à¤¨": 2197,
      "à²¤à²µà²¨": 2198,
      "à¤ħà¤¸à¤²": 2199,
      "ve": 2200,
      "à³©": 2201,
      "Ġsuch": 2202,
      "à²¯à²¬à²¹": 2203,
      "ike": 2204,
      "à²³à²¨": 2205,
      "à¤¥à¤ķ": 2206,
      "ĠAmeric": 2207,
      "Ġspec": 2208,
      "à²§à²ķ": 2209,
      "Ġà²²à²¸": 2210,
      "à¤·à¤®à¤¤": 2211,
      "Ġsy": 2212,
      "à³«": 2213,
      "Ġà²Ĩà²Ĺà²®": 2214,
      "Ġà²īà²ªà²¯": 2215,
      "Ġinc": 2216,
      "à¤Ĺà¤²à¤µ": 2217,
      "ww": 2218,
      "Ġà²Ľ": 2219,
      "à¤²à¤¹": 2220,
      "à²¡à²¤": 2221,
      "ery": 2222,
      "Ġà²ľà²Ĺà²¤": 2223,
      "Ġà¤ĸà¤¤à¤°": 2224,
      "Ġago": 2225,
      "à¤Ľà¤¤": 2226,
      "Ġà²ªà²°à²®": 2227,
      "Ġlater": 2228,
      "ĠBr": 2229,
      "à¤Ļ": 2230,
      "à²²à²Ĺà²³": 2231,
      "Ġop": 2232,
      "à²°à²£à²¦": 2233,
      "Ġbetween": 2234,
      "à¤°à¤ļ": 2235,
      "à³Ĩ)": 2236,
      "à¤ıà¤«": 2237,
      "Ġrep": 2238,
      "Ġ35": 2239,
      "Ġwhile": 2240,
      "à³į(": 2241,
      "Ġfilm": 2242,
      "lect": 2243,
      "ft": 2244,
      "Ġà¤ķà¤¥": 2245,
      "Ġà²°à²·": 2246,
      "Ġà²¶à²¨": 2247,
      "ĠNews": 2248,
      "hip": 2249,
      "à²¸à²¤": 2250,
      "Ġà²ħà²¯": 2251,
      "à²İà²«": 2252,
      "Ġà¤ļà¤°à¤£": 2253,
      "ities": 2254,
      "Ġlar": 2255,
      "à¤°à¤¥à¤®": 2256,
      "à¤¨à¤Ł": 2257,
      "Ġà¤ªà¤²": 2258,
      "à³ĭ,": 2259,
      "à²°à²®à²¦à²²": 2260,
      "Ġthrough": 2261,
      "iel": 2262,
      "Ġà¤ªà¤Ł": 2263,
      "Ġbu": 2264,
      "Ġnum": 2265,
      "Ġthan": 2266,
      "à¤£à¤¯": 2267,
      "Ġ60": 2268,
      "Ġà²¨à²·": 2269,
      "Ġà²°à²®": 2270,
      "Ġsome": 2271,
      "yle": 2272,
      "à¤¾)": 2273,
      "Ġà¤ķà¤¡": 2274,
      "à¥Ģ'": 2275,
      "à²¯à²Ĺà²³à²²": 2276,
      "à¤¡à¤ķ": 2277,
      "Ġà¤¤à¤¯": 2278,
      "Ġwhere": 2279,
      "à²¯à²µà²¹": 2280,
      "à²İà²¨": 2281,
      "hes": 2282,
      "Ġà²Ĩà²ª": 2283,
      "Ġà²ľà²²": 2284,
      "Ġthree": 2285,
      "Åĭ": 2286,
      "à¤¦à¤²": 2287,
      "à²¤à²°à²¦": 2288,
      "Ġà¤ħà¤µà¤§": 2289,
      "à²²à²²": 2290,
      "à²¤à²ª": 2291,
      "à²Łà²Ĺ": 2292,
      "à²£à²Ĺà²³": 2293,
      "Ġà²µà²ķ": 2294,
      "Ġact": 2295,
      "ict": 2296,
      "à²¯à²ķà²¤": 2297,
      "Ġà²ķà²¸": 2298,
      "à¤¦à¤¬": 2299,
      "ene": 2300,
      "Ġmon": 2301,
      "ĠSc": 2302,
      "à²°à²®à²¦": 2303,
      "ĠMiss": 2304,
      "Ġform": 2305,
      "aid": 2306,
      "à¥Ń": 2307,
      "arth": 2308,
      "à²ķà²¸": 2309,
      "Ġà²®à²Ĺà²³": 2310,
      "à¤µà¤Ł": 2311,
      "ife": 2312,
      "Ġrecord": 2313,
      "à²¹à²ķ": 2314,
      "Ġà¤ĸà¤¤": 2315,
      "Ġà²Ĵà²®": 2316,
      "à¤µà¤¶": 2317,
      "à²¤à²°à²£": 2318,
      "à¤¤à¤ľ": 2319,
      "Ġà²ħà²³": 2320,
      "22": 2321,
      "à¤¾à¤ĥ": 2322,
      "Ġà¤ĩà¤®": 2323,
      "ern": 2324,
      "ĠAs": 2325,
      "Ġ45": 2326,
      "Ġà¤ĩà¤¨à¤®": 2327,
      "à³¦à³¦": 2328,
      "io": 2329,
      "à²¨à²Ĺà²³à²¨": 2330,
      "à²¥à²¨": 2331,
      "à¤¶à¤¨à¤²": 2332,
      "Ġà¤¸à¤¬à¤ķ": 2333,
      "Ġà¤ľà¤¨à¤µà¤°": 2334,
      "à¤®à¤¯": 2335,
      "Ġà²ľà²¯": 2336,
      "Ġcall": 2337,
      "à¤ħà¤ª": 2338,
      "Ġà¤®à¤ķ": 2339,
      "à²Ńà²ķ": 2340,
      "ale": 2341,
      "Ġinter": 2342,
      "Ġreg": 2343,
      "Ġà¤¹à¤®à¤¨": 2344,
      "Ġgro": 2345,
      "Ġà¤Ĩà¤¦à¤®": 2346,
      "à²¨à²µà²°": 2347,
      "Ġà¤¸à¤¸": 2348,
      "à¤Ĺà¤¦": 2349,
      "Ġà¤īà¤¡": 2350,
      "ĠAt": 2351,
      "à²ļà²¯": 2352,
      "à²¶à²Ĺà²³à²¨": 2353,
      "Ġcol": 2354,
      "ily": 2355,
      "echn": 2356,
      "à¤Łà¤«": 2357,
      "Ġà¤ħà¤ĸ": 2358,
      "Ġcan": 2359,
      "Ġà²¸à²®à²°": 2360,
      "à²¡à²Ĺà²³": 2361,
      "à¥ĩà¤Ĥ.": 2362,
      "Ġà²¤à²°à²¬": 2363,
      "ĠPro": 2364,
      "Ġsecond": 2365,
      "ha": 2366,
      "Ġthere": 2367,
      "ala": 2368,
      "aking": 2369,
      "cc": 2370,
      "à²¦à²·": 2371,
      "ata": 2372,
      "Ġnews": 2373,
      "ada": 2374,
      "ĠJo": 2375,
      "bum": 2376,
      "à³¯": 2377,
      "Ġà¤¹à¤¸": 2378,
      "Ġà²°à²ļà²¨": 2379,
      "à²ı": 2380,
      "à¤¤à¤²": 2381,
      "Ġà¤ªà¤°à¤¨": 2382,
      "Ġà²®à²°à²³": 2383,
      "velop": 2384,
      "à³ª": 2385,
      "à²ļà²²": 2386,
      "à¤ļà¤¯": 2387,
      "Ġà²Ńà²¯": 2388,
      "Ġmus": 2389,
      "ived": 2390,
      "à¤¯à¤°à¤¸": 2391,
      "à²µà²®": 2392,
      "à¤µà¤§": 2393,
      "à²·à²§": 2394,
      "à²µà²¨à²¦": 2395,
      "Ġà¤ªà¤¹à¤ļ": 2396,
      "Ġà¤¬à¤¨à¤¨": 2397,
      "Ġà¤¦à¤°à¤ħà¤¸à¤²": 2398,
      "ĠEng": 2399,
      "à¤ĸà¤²": 2400,
      "à¤ĩà¤ľ": 2401,
      "Ġà¤Ľà¤¹": 2402,
      "ten": 2403,
      "à²ķà²¦à²²": 2404,
      "à²¹à²µ": 2405,
      "Ġà²¤à²³": 2406,
      "Ġday": 2407,
      "Ġgr": 2408,
      "Ġà¤Ĺà¤²à¤¤": 2409,
      "Ġà¤ĩà¤ķ": 2410,
      "Ġadd": 2411,
      "à²µà²¨à²¦à²²": 2412,
      "Ġgo": 2413,
      "ool": 2414,
      "à¤ķà¤®": 2415,
      "à²ļà²ķ": 2416,
      "Ġà¤ĩà¤ļ": 2417,
      "à¤·à¤®": 2418,
      "à²°à²µà²¸": 2419,
      "à¤¹à¤°à¤£": 2420,
      "ird": 2421,
      "12": 2422,
      "à¤µà¤ľà¤¨": 2423,
      "ats": 2424,
      "Ġdesc": 2425,
      "à¤ķà¤µ": 2426,
      "Ġà¤®à¤¶": 2427,
      "à³®": 2428,
      "Ġà¤ķà¤¦à¤®": 2429,
      "à²²à²ķà²°": 2430,
      "à¤µà¤¹": 2431,
      "à²¶à²Ĺà²³à²²": 2432,
      "ise": 2433,
      "Ġà¤Ĩà¤ł": 2434,
      "Ġà²īà²Ĺ": 2435,
      "à¤¤à¤¤": 2436,
      "à¥ī.": 2437,
      "à²ľà²¸": 2438,
      "Ġno": 2439,
      "ĠPr": 2440,
      "ĠNew": 2441,
      "Ġbefore": 2442,
      "ific": 2443,
      "irect": 2444,
      "à¤¨à¤ķà¤°": 2445,
      "à¤²à¤®": 2446,
      "Ġà²¹à²ļ": 2447,
      "à¤«à¤°": 2448,
      "Ġ80": 2449,
      "Ġà²ľà²°": 2450,
      "à¤µà¤ļ": 2451,
      "Ġà²¬à²Ł": 2452,
      "Ġà¤Ńà¤ķ": 2453,
      "orts": 2454,
      "Ġà¤īà¤¨à¤®": 2455,
      "Ġalbum": 2456,
      "indi": 2457,
      "ement": 2458,
      "à²³à²µà²¡": 2459,
      "à²¤à²¡": 2460,
      "Ġà²ªà²¦à²µ": 2461,
      "Ġà²µà²¨": 2462,
      "Ġpop": 2463,
      "à¤¯à¤µà¤¹": 2464,
      "à¤ªà¤Ł": 2465,
      "à²Ńà²¦": 2466,
      "Ã«": 2467,
      "à¤¾?": 2468,
      "à¤°à¤Ĺ": 2469,
      "Ġà¤ļà¤ķ": 2470,
      "Ġà²¶à²¬": 2471,
      "Ġfound": 2472,
      "Ġà¤Īà¤¶": 2473,
      "à¥¥": 2474,
      "à²³à²µà²£": 2475,
      "Ġà²¨à²ķ": 2476,
      "Ġà¤īà¤¨à¤¸": 2477,
      "à²¯à²°à²¨": 2478,
      "à¤®à¤¹": 2479,
      "à¤¼à¥ĩà¤Ĥ": 2480,
      "ram": 2481,
      "à³į\"": 2482,
      "à²¨à²·": 2483,
      "Ġà²ªà²¶": 2484,
      "ins": 2485,
      "Ġà¤ķà¤¶": 2486,
      "Ġà¤°à¤ļà¤¨": 2487,
      "à²ľà²¦": 2488,
      "Ġset": 2489,
      "à¤ĩà¤µ": 2490,
      "Ġà²Ĩà²µà²°": 2491,
      "Ġsur": 2492,
      "Ġ2010": 2493,
      "Ġseries": 2494,
      "air": 2495,
      "Ġà²ħà²£": 2496,
      "Ġà¤¤à¤¨": 2497,
      "ident": 2498,
      "emb": 2499,
      "Ġà¤¸à¤«à¤²à¤¤": 2500,
      "ont": 2501,
      "Ġà²Ńà²°": 2502,
      "à²°à²®à²µ": 2503,
      "Ġà¤ĳà¤¸": 2504,
      "à²°à²ķà²°à²£à²Ĺà²³": 2505,
      "Ġused": 2506,
      "overn": 2507,
      "à¤¬à¤¦": 2508,
      "Ġà²ļà²ķ": 2509,
      "Ġà¤ĺà¤Ł": 2510,
      "Ġà²ıà²³": 2511,
      "à²¯à²®à²Ĺà²³": 2512,
      "Ġbeing": 2513,
      "yl": 2514,
      "à³Īà²Ĥ": 2515,
      "Ġà¤Ĩà¤Īà¤ª": 2516,
      "Ġà¤®à¤ľà¤¦": 2517,
      "Ġyears": 2518,
      "Ġà¤®à¤Ĺà¤°": 2519,
      "Ġà²ħà²³à²µà²¡": 2520,
      "ink": 2521,
      "elf": 2522,
      "Ġep": 2523,
      "Ġà¤ķà¤®à¤°": 2524,
      "à¤ħà¤²à¤Ĺ": 2525,
      "aka": 2526,
      "Ġà²ħà²¹": 2527,
      "ines": 2528,
      "Ġà¤ıà¤«": 2529,
      "Ġwell": 2530,
      "Ġ2018": 2531,
      "Ġtrans": 2532,
      "à²¶à²ķà²°": 2533,
      "une": 2534,
      "Ġà²Ĳà²ª": 2535,
      "17": 2536,
      "à¤ļà¤¤": 2537,
      "Ġà¤Ĺà¤²": 2538,
      "Ġfour": 2539,
      "Ġ32": 2540,
      "resent": 2541,
      "15": 2542,
      "à²ķà²ª": 2543,
      "à²Łà²®": 2544,
      "ield": 2545,
      ").": 2546,
      "Ġ37": 2547,
      "ĠX": 2548,
      "à²®à²¦à²²": 2549,
      "Ġà²Ĩà²ļà²°": 2550,
      "à²°à²¤à²ķ": 2551,
      "Ġhigh": 2552,
      "Ġacc": 2553,
      "Ġà²ªà²ł": 2554,
      "à¤ľà¤µ": 2555,
      "Ġà²İà²£": 2556,
      "Ġsing": 2557,
      "Ġà²¯à²¤": 2558,
      "à²°à²µà²²": 2559,
      "Ġloc": 2560,
      "ĠIs": 2561,
      "Ġem": 2562,
      "Ġ500": 2563,
      "à²ĩà²¦": 2564,
      "ĠIndia": 2565,
      "oo": 2566,
      "Ġà¤®à¤ļ": 2567,
      "à³Ĩ;": 2568,
      "à¥ĭ-": 2569,
      "Ġà¤Ńà¤¯": 2570,
      "Ġmet": 2571,
      "à²°à²£à²Ĺà²³": 2572,
      "Ġà¤ľà¤¨à¤¸": 2573,
      "Ġ2014": 2574,
      "à²µà²ļ": 2575,
      "Ġà²ªà²°à²µ": 2576,
      "à¤¬à¤¤": 2577,
      "Ġlong": 2578,
      "à²¤à²¸": 2579,
      "Ġà²ħà²°à²£": 2580,
      "à²Ĺà²³à²µ": 2581,
      "ĠTr": 2582,
      "owever": 2583,
      "à¤īà¤Ł": 2584,
      "Ġà³§": 2585,
      "Ġexp": 2586,
      "ĠAm": 2587,
      "ull": 2588,
      "Ġ2017": 2589,
      "Ġà²Ĩà²¸à²ķ": 2590,
      "Ġà²¹à²£à²µà²¨": 2591,
      "Ġincluding": 2592,
      "',": 2593,
      "13": 2594,
      "ober": 2595,
      "à¤ķà¤ª": 2596,
      "à¤®à¤ª": 2597,
      "Ġà¤¨à¤ľ": 2598,
      "Ġà²Ĩà²³": 2599,
      "ative": 2600,
      "Ġdif": 2601,
      "ause": 2602,
      "Ġà¤ķà¤ł": 2603,
      "Ġ36": 2604,
      "à¤°à¤¹à¤£": 2605,
      "Ġart": 2606,
      "à¤¸à¤¬": 2607,
      "Ġaut": 2608,
      "Ġà²Ńà²Ł": 2609,
      "Ġà²Ńà²°à²µà²¸": 2610,
      "ĠPol": 2611,
      "Ġknown": 2612,
      "ved": 2613,
      "à¤Ĥ,": 2614,
      "à¤«à¤²": 2615,
      "Ġ195": 2616,
      "Ġà¤¸à¤«à¤²": 2617,
      "Ġà¤ħà¤Ĺà¤¸": 2618,
      "ya": 2619,
      "Ġà²¶à²°à²£": 2620,
      "Ġbl": 2621,
      "ĠShe": 2622,
      "Ġà²¬à²³à²¸à²²": 2623,
      "ute": 2624,
      "Ġà²¹à²£à²ķ": 2625,
      "ept": 2626,
      "Ġà²Ķà²·à²§": 2627,
      "Ġagainst": 2628,
      "eb": 2629,
      "ton": 2630,
      "à¤¤à¤ļ": 2631,
      "Ġà¤ľà¤¤": 2632,
      "inn": 2633,
      "Ġà²īà²¨": 2634,
      "Ġà²ħà²µà²¶": 2635,
      "Ġà²®à²ł": 2636,
      "Ġà¤ľà¤¯": 2637,
      "Ġà¤¶à¤¤": 2638,
      "Ġà²ľà²µ": 2639,
      "à¤Ńà¤ķ": 2640,
      "Ġà²ļà²³": 2641,
      "Ġà¤Ľà¤¤": 2642,
      "erson": 2643,
      "à²¤à²®à²µ": 2644,
      "pr": 2645,
      "à²®à²µà²¨": 2646,
      "à²·à²¦à²²": 2647,
      "ism": 2648,
      "ised": 2649,
      "à¤ĩà¤®": 2650,
      "Ġà¤ĵà¤µà¤°": 2651,
      "Ġà²ķà²¨à²¸": 2652,
      "Ġbecame": 2653,
      "der": 2654,
      "ex": 2655,
      "Ġed": 2656,
      "à¤Ķ": 2657,
      "à¥¯": 2658,
      "à²¨à²¯": 2659,
      "à²µà²ª": 2660,
      "Ġà²¬à²ľ": 2661,
      "à¤¬à¤¡": 2662,
      "Ġà²īà²¸": 2663,
      "Ġà¤¨à¤ķ": 2664,
      "Ġthese": 2665,
      "ĠII": 2666,
      "18": 2667,
      "ures": 2668,
      "êŀ": 2669,
      "Ġà¤°à¤ľ": 2670,
      "Ġà²°à²ľ": 2671,
      "Ġmany": 2672,
      "à²ĺà²¦": 2673,
      "à²Łà²ķà²¦à²²": 2674,
      "à²µà²¹à²£": 2675,
      "êŀĮ": 2676,
      "Ġ000": 2677,
      "à²ķà²¡": 2678,
      "Ġà²¤à²ľ": 2679,
      "ince": 2680,
      "ather": 2681,
      "Ġà²ľà²¨à²¤": 2682,
      "Ġorig": 2683,
      "Ġà²¬à²¸à²µà²°": 2684,
      "Ġnumber": 2685,
      "aa": 2686,
      "à²¿\"": 2687,
      "ars": 2688,
      "Ġà²ľà²¨à²¸": 2689,
      "ets": 2690,
      "Ġà²ĩà²°à²¬": 2691,
      "Ġ]": 2692,
      "à¤¿-": 2693,
      "Ġà²īà²°": 2694,
      "à²ĸà²µ": 2695,
      "Ġgu": 2696,
      "Ġà¤«à¤°à¤µà¤°": 2697,
      "Ġserv": 2698,
      "rol": 2699,
      "Ġsever": 2700,
      "Ġà²İà²³": 2701,
      "enn": 2702,
      "à¤Ĺà¤ľ": 2703,
      "à²£à²¸": 2704,
      "Ġmain": 2705,
      "Ġrece": 2706,
      "à²°à²®à²Ĺà²³": 2707,
      "ĠBrit": 2708,
      "iver": 2709,
      "Ġlead": 2710,
      "led": 2711,
      "ps": 2712,
      "ivers": 2713,
      "à²ŀà²°": 2714,
      "à¤ĸà¤¨à¤Ĭ": 2715,
      "harati": 2716,
      "rs": 2717,
      "Ġest": 2718,
      "à³¬": 2719,
      "other": 2720,
      "à²¤à²·": 2721,
      "à¤¯à¤¯": 2722,
      "à²¸à²µà²¨": 2723,
      "Ġcentury": 2724,
      "'t": 2725,
      "ole": 2726,
      "à²²à²¯à²¦à²²": 2727,
      "à²²à²Ńà²µ": 2728,
      "Ġback": 2729,
      "Ġdevelop": 2730,
      "ject": 2731,
      "à¤¦à¤¶": 2732,
      "à²µà²°à²£": 2733,
      "Ġ...": 2734,
      "à¤¸à¤®à¤¯": 2735,
      "Ġcre": 2736,
      "Ġcharac": 2737,
      "Ġepis": 2738,
      "tt": 2739,
      "à¤®à¤¶": 2740,
      "à²ªà²Ĺà²³": 2741,
      "Ġà¤Ńà¤²": 2742,
      "Ġsm": 2743,
      "ĠHindi": 2744,
      "app": 2745,
      "Ã©": 2746,
      "à²¸à²¦à²²": 2747,
      "à²®à²¹": 2748,
      "urch": 2749,
      "Ġteam": 2750,
      "ful": 2751,
      "à²¹à²¨à²Ĺà²³": 2752,
      "Ġinv": 2753,
      "Ġmar": 2754,
      "Ġà¤ħà¤®à¤°": 2755,
      "11": 2756,
      "yp": 2757,
      "ys": 2758,
      "Ġ$": 2759,
      "à²¦à²Ĺà²³": 2760,
      "à²µà²§": 2761,
      "à²µà²ķà²°": 2762,
      "à²¯à²¡": 2763,
      "Ġà¤¨à¤®": 2764,
      "Ġà¤ľà¤¡": 2765,
      "Ġthen": 2766,
      "Ġboth": 2767,
      "Ġdown": 2768,
      "ĠDe": 2769,
      "ained": 2770,
      "Ġrun": 2771,
      "echnology": 2772,
      "à¤¯à¤£": 2773,
      "à¤īà¤¸": 2774,
      "à¥¦à¥¦": 2775,
      "à²¤à²Ĺà²³": 2776,
      "Ġ70": 2777,
      "Ġprov": 2778,
      "ove": 2779,
      "fl": 2780,
      "Ġ&": 2781,
      "à²²à²Ĺ": 2782,
      "int": 2783,
      "ĠJohn": 2784,
      "99": 2785,
      "ax": 2786,
      "na": 2787,
      "Ġà¤ļà¤¢": 2788,
      "Ġpar": 2789,
      "à¤¤à¤°à¤£": 2790,
      "Ġdescrib": 2791,
      "ared": 2792,
      "iam": 2793,
      "iet": 2794,
      "Ġà²Ĩà²ķà²°": 2795,
      "Ġà¤Ĺà¤¹à¤°": 2796,
      "Ġà²ļà²²à²¨": 2797,
      "à³Ń": 2798,
      "Ġà¤¹à¤¡": 2799,
      "à¥Ĥ-": 2800,
      "à¤¥à¤°": 2801,
      "Ġstud": 2802,
      "ĠÙ": 2803,
      "à¤ĸà¤ķ": 2804,
      "Ġdist": 2805,
      "ĠPl": 2806,
      "ĠWorld": 2807,
      "oot": 2808,
      "à²·à²Ĺà²³à²²": 2809,
      "Ġà¤¡à¤°": 2810,
      "amb": 2811,
      "Ġstr": 2812,
      "à¤ĩà¤¨à¤²": 2813,
      "Ġ+": 2814,
      "à²¦à²®": 2815,
      "à²¤à²¤": 2816,
      "à²ķà²µà²¨": 2817,
      "à²ľà²®": 2818,
      "eng": 2819,
      "Ġins": 2820,
      "ifest": 2821,
      "ST": 2822,
      "à²¶à²°": 2823,
      "Ġà²°à²µà²°": 2824,
      "à²¸à²°à²¨": 2825,
      "though": 2826,
      "à¤Ķà¤°": 2827,
      "16": 2828,
      "à²°à²ķà²°": 2829,
      "à²¤à²ªà²Ł": 2830,
      "Ġdirect": 2831,
      "ley": 2832,
      "ĠCl": 2833,
      ")à¥¤": 2834,
      "aim": 2835,
      "Ġà¤ħà¤¸à¤°": 2836,
      "Ġcrit": 2837,
      "Ġà²Ĵà²ķ": 2838,
      "Ġbr": 2839,
      "ĠWh": 2840,
      "à²¾à²ĥ": 2841,
      "Ġsaid": 2842,
      "ople": 2843,
      "Ġà²īà²ªà²¸": 2844,
      "23": 2845,
      "ĠÂ": 2846,
      "à¥Ģà¤ĥ": 2847,
      "à¤¡à¤¸": 2848,
      "Ġà¤Ĩà¤ļ": 2849,
      "ama": 2850,
      "Ġà¤¬à¤¨à¤¤": 2851,
      "Ġà²ľà²¨à²µà²°": 2852,
      "Ġà¥§à¥¯": 2853,
      "à²¡à²µà²¨": 2854,
      "à¤ľà¤¬": 2855,
      "Ġ2015": 2856,
      "Ġ75": 2857,
      "ĠâĢĶ": 2858,
      "Ġseveral": 2859,
      "à²ķà²ķ": 2860,
      "à¤ıà¤ļ": 2861,
      "Ġà¤Ĩà¤¸à¤ª": 2862,
      "à¤·à¤ľ": 2863,
      "à¤£à¤µ": 2864,
      "Ġbel": 2865,
      "row": 2866,
      "Ġext": 2867,
      "Ġà²ĩà²¸": 2868,
      "ower": 2869,
      "Ġà¤¹à¤¥": 2870,
      "à²ªà²µà²¨": 2871,
      "Ġà¤Ĩà¤ĩ": 2872,
      "itt": 2873,
      "Ġcap": 2874,
      "ĠAfter": 2875,
      "ural": 2876,
      "ĠBl": 2877,
      "Ġà¤īà¤ªà¤ļ": 2878,
      "ĠUnited": 2879,
      "Ġearly": 2880,
      "han": 2881,
      "à®": 2882,
      "Ġmay": 2883,
      "imes": 2884,
      "ĠThey": 2885,
      "Ġà¤ķà¤ªà¤¡": 2886,
      "Ġperform": 2887,
      "Ġà¤īà¤¤à¤°": 2888,
      "à²¤à²°à²¨": 2889,
      "Ġph": 2890,
      "me": 2891,
      "Ġà¤ķà¤¸": 2892,
      "à¤¶à¤°": 2893,
      "Ġà¤Ĩà¤ªà¤¨": 2894,
      "à¤ĺà¤¨": 2895,
      "Ġà²ĺà²Łà²ķ": 2896,
      "Ġ2008": 2897,
      "Ġyou": 2898,
      "Ġcontin": 2899,
      "à²£à²®à²Ł": 2900,
      "af": 2901,
      "Ġà²¹à²¦": 2902,
      "Ġà¤ħà¤µà¤¸": 2903,
      "à²ľà²²": 2904,
      "Ġco": 2905,
      "Ġ2016": 2906,
      "ange": 2907,
      "Ġfeat": 2908,
      "ple": 2909,
      "à²·à²®": 2910,
      "Ġà¤īà¤°": 2911,
      "Ġsame": 2912,
      "Ġhrs": 2913,
      "Ġ193": 2914,
      "Ġshow": 2915,
      "Ġà¤®à¤¤à¤¦": 2916,
      "à²¡à²µà²°": 2917,
      "à²¡à²¦à²²": 2918,
      "Ġà¤¤à¤Ń": 2919,
      "Ġfin": 2920,
      "ized": 2921,
      "Ġresp": 2922,
      "à¤¯à¤¯à¤¨": 2923,
      "ini": 2924,
      "Ġà¤īà¤ķ": 2925,
      "ĠAd": 2926,
      "Ġnear": 2927,
      "à¤Łà¤°à¤¨": 2928,
      "Ġ2013": 2929,
      "à¤ķà¤¸à¤Ń": 2930,
      "ĠAmerican": 2931,
      "21": 2932,
      "ke": 2933,
      "à²Ŀ": 2934,
      "à²£à²µà²¨": 2935,
      "Ġà¤ļà¤²à¤¨": 2936,
      "Ġà²¶à²¤à²®": 2937,
      "à¤¾à¤Ĥ,": 2938,
      "Ġprot": 2939,
      "Ġdep": 2940,
      "ption": 2941,
      "til": 2942,
      "ĠQ": 2943,
      "à²¿?": 2944,
      "à²µà²¶": 2945,
      "Ġmil": 2946,
      "Ġà¥«": 2947,
      "Ġà²ĸà²ļ": 2948,
      "ĠFr": 2949,
      "Ġ2012": 2950,
      "Ġà²ļà²²": 2951,
      "amed": 2952,
      "Ġthough": 2953,
      "Ġà²ľà²¨à²°à²¨": 2954,
      "Ġà³©": 2955,
      "Ġreleased": 2956,
      "Ġreturn": 2957,
      "à²¸à²®": 2958,
      "Ġà²°à²¦": 2959,
      "Ġà¤ıà¤ª": 2960,
      "ister": 2961,
      "ifestyle": 2962,
      "Ġà²®à²¡": 2963,
      "Ġà²¤à²Ĺ": 2964,
      "Ġhist": 2965,
      "Ġname": 2966,
      "raph": 2967,
      "get": 2968,
      "ven": 2969,
      "à²°à²Ĺà²¤": 2970,
      "à²Łà²ªà²¡": 2971,
      "Ġà²Ńà²Ĺà²µ": 2972,
      "....": 2973,
      "à²¥à²³à²¦à²²": 2974,
      "à²²à²¬": 2975,
      "Ġà¤¯à¤¥": 2976,
      "à¥Īà¤Ĥà¤ĥ": 2977,
      "Ġà¤ıà¤¯à¤°": 2978,
      "Ġfam": 2979,
      "ĠAnd": 2980,
      "ided": 2981,
      "Ġà²ķà²¬": 2982,
      "à¤ªà¤¹à¤°": 2983,
      "Ġà¤ıà¤¶": 2984,
      "à¤¤à¤°à¤°": 2985,
      "Ġ34": 2986,
      "Ġà¥ª": 2987,
      "Ġà¤ĳà¤¨à¤²": 2988,
      "Ġ90": 2989,
      "ĠAll": 2990,
      "overnment": 2991,
      "ually": 2992,
      "à²¿(": 2993,
      "ĠAug": 2994,
      "Ġgener": 2995,
      "Ġvari": 2996,
      "ired": 2997,
      "à¤²à¤ļ": 2998,
      "Ġà¤Ĺà¤ł": 2999,
      "Ġà¤ļà¤®": 3000,
      "Ġbre": 3001,
      "chool": 3002,
      "Ġà¤ªà¤¨": 3003,
      "Ġà²ĩà²®": 3004,
      "Ġpo": 3005,
      "Ġmill": 3006,
      "els": 3007,
      "Ġlike": 3008,
      "à¤ħà¤²": 3009,
      "ĠOct": 3010,
      "à¥Ĥà¤Ĥà¥¤": 3011,
      "Ġcomple": 3012,
      "ient": 3013,
      "ĠØ": 3014,
      "Ġà¤ħà¤¡": 3015,
      "Ġà²µà²¤": 3016,
      "Ġà²¤à²°à²²": 3017,
      "Ġmat": 3018,
      "Ġdid": 3019,
      "ĠCon": 3020,
      "Ġ33": 3021,
      "ains": 3022,
      "ĠComm": 3023,
      "à¤°à¤µà¤°": 3024,
      "Ġà¤ķà¤ķ": 3025,
      "à¤¹à¤¬": 3026,
      "Ġà²İà²«": 3027,
      "Ġcalled": 3028,
      "rist": 3029,
      "à¤¸à¤ķà¤°": 3030,
      "Ġà¤Ĺà¤łà¤¨": 3031,
      "Ġà¤Ńà¤µà¤¨": 3032,
      "Ġà²¦à²¤": 3033,
      "Ġoper": 3034,
      "Ġcould": 3035,
      "ĠMay": 3036,
      "Ġà²¤à²°à²Ĺà²¤": 3037,
      "Ġuse": 3038,
      "14": 3039,
      "hi": 3040,
      "ued": 3041,
      "Ġsim": 3042,
      "Ġele": 3043,
      "Ġdisc": 3044,
      "à²Łà²Ĺà²³": 3045,
      "Ġà¤Ĩà¤¹": 3046,
      "Ġà¤īà¤ªà¤°": 3047,
      "ony": 3048,
      "à²¥à²¦": 3049,
      "Ġown": 3050,
      "Ġwill": 3051,
      "Ġà¤Ĩà¤ªà¤¸": 3052,
      "Ġà¥¬": 3053,
      "Ġà¤ªà¤µ": 3054,
      "Ġà²¹à²µ": 3055,
      "Ġà¤¦à¤®": 3056,
      "Ġtit": 3057,
      "à¤·à¤°": 3058,
      "Ġsign": 3059,
      "Ġlife": 3060,
      "Ġbegan": 3061,
      "80": 3062,
      "ium": 3063,
      "Ġà¤ļà¤¯à¤¨": 3064,
      "Ġcity": 3065,
      "oman": 3066,
      "Ġconc": 3067,
      "Ġà¤ħà¤°à¤¬": 3068,
      "ible": 3069,
      "Ġpeople": 3070,
      "ee": 3071,
      "ured": 3072,
      "à²°à²¥à²®": 3073,
      "à²¨à²Ĺà²°": 3074,
      "à¤Łà¤µ": 3075,
      "Ġà¤¦à¤¶": 3076,
      "ĠCar": 3077,
      "à¤ħà¤¨": 3078,
      "Ġalong": 3079,
      "Ġ2005": 3080,
      "view": 3081,
      "Ġgroup": 3082,
      "à¤¨à¤Ĺà¤°": 3083,
      "Ġsuc": 3084,
      "Ġinst": 3085,
      "stem": 3086,
      "à²°à²°à²¨": 3087,
      "Ġship": 3088,
      "Ġà²ħà²¸à²®": 3089,
      "ajor": 3090,
      "ĠAugust": 3091,
      "med": 3092,
      "vers": 3093,
      "à¤µà¤Ń": 3094,
      "à²¬à²¤": 3095,
      "Ġdet": 3096,
      "Ġà¤ķà¤®à¤ľ": 3097,
      "ists": 3098,
      "Ġepisode": 3099,
      "lish": 3100,
      "xt": 3101,
      "Ġà²¹à²°à²¡": 3102,
      "à¤¡à¤µ": 3103,
      "Ġà¤Ĩà¤¬": 3104,
      "à²¦à²²à²¨": 3105,
      "Ġbro": 3106,
      "Ġpass": 3107,
      "à³ĥà²Ĥ": 3108,
      "osed": 3109,
      "Ġconst": 3110,
      "Ġimp": 3111,
      "son": 3112,
      "Ġà¤ľà¤Ĺà¤¤": 3113,
      "ĠFin": 3114,
      "ĠJune": 3115,
      "ĠUS": 3116,
      "Ġarea": 3117,
      "ij": 3118,
      "à²ķà²®": 3119,
      "à²ķà²°à²¨": 3120,
      "ung": 3121,
      "Ġà¤¬à¤ľà¤Ł": 3122,
      "Ġuntil": 3123,
      "Ġà¤¸à¤²à¤®": 3124,
      "gest": 3125,
      "à²·à²¯à²Ĺà²³": 3126,
      "Ġà²Ĩà²ļ": 3127,
      "Ġà¤ļà¤¨": 3128,
      "ĠAust": 3129,
      "ĠBe": 3130,
      "rain": 3131,
      "à²¨à²¡à²¦": 3132,
      "Ġà²ĵà²µà²°": 3133,
      "Ġà²¨à²Ĺà²°à²¦à²²": 3134,
      "ruct": 3135,
      "ĠOctober": 3136,
      "25": 3137,
      "ious": 3138,
      "Ġà²¸à²¸": 3139,
      "Ġà²ĩà²µà²¨": 3140,
      "Ġcar": 3141,
      "Ġbo": 3142,
      "Ġà¤®à¤¹à¤¸": 3143,
      "à¤¸à¤²à¤®": 3144,
      "Ġbecause": 3145,
      "à²ķà²¸à²Ń": 3146,
      "Ġcount": 3147,
      "ilt": 3148,
      "ects": 3149,
      "iving": 3150,
      "ution": 3151,
      "à¤ĺà¤Łà¤¨": 3152,
      "ces": 3153,
      "à²¯à²Ń": 3154,
      "à²®à²ª": 3155,
      "à¤Ĺà¤ķ": 3156,
      "à²¹à²¦à²²": 3157,
      "Ġà²İà²¡": 3158,
      "Ġob": 3159,
      "Ġà²ħà²µà²²": 3160,
      "ĠHer": 3161,
      "Ġà¤īà¤ªà¤ķà¤°à¤£": 3162,
      "Ġ2011": 3163,
      "Don": 3164,
      "à¥ģà¤ĥ": 3165,
      "à²¬à²ķ": 3166,
      "Ġfinal": 3167,
      "à²¯à²ķà²¨": 3168,
      "à²°à²µà²£": 3169,
      "Ġà¤ªà¤¹à¤¨": 3170,
      "Ġeff": 3171,
      "Ġ2006": 3172,
      "annada": 3173,
      "à²®à²ļ": 3174,
      "à¤ªà¤¥": 3175,
      "Ġocc": 3176,
      "ross": 3177,
      "ĠTechnology": 3178,
      "Ġland": 3179,
      "Ġ38": 3180,
      "Ġ2009": 3181,
      "Ġfollowing": 3182,
      "Ġsmall": 3183,
      "à²ķà²Ĺà²³": 3184,
      "à¤¯à¤Ĺ": 3185,
      "à¥Īà¤ĥ": 3186,
      "Ġà¤²à¤ĸà¤¨à¤Ĭ": 3187,
      "à¥Ĥ,": 3188,
      "Ġà¤īà¤ľ": 3189,
      "Ġà²ľà²Ĺà²¦": 3190,
      "Ġsix": 3191,
      "itions": 3192,
      "Ġà¤ħà¤µà¤¶": 3193,
      "ideo": 3194,
      "ported": 3195,
      "Ġattack": 3196,
      "Ġconsid": 3197,
      "ĠBritish": 3198,
      "Ġà²ªà²µ": 3199,
      "à²¹à²®": 3200,
      "Ġwar": 3201,
      "à²«à²°": 3202,
      "Ġever": 3203,
      "Ġà¤¸à¤¹à¤®à¤¤": 3204,
      "24": 3205,
      "aur": 3206,
      "ced": 3207,
      "urop": 3208,
      "Ġz": 3209,
      "à²¯à²ľ": 3210,
      "Ġà¤¸à¤ĸ": 3211,
      "à¤²à¤¡": 3212,
      "Ġà²ªà²°à²¦": 3213,
      "Ġà¤Ĩà¤īà¤Ł": 3214,
      "ĠWar": 3215,
      "à²ĩà²¨": 3216,
      "Ġ150": 3217,
      "ially": 3218,
      "----": 3219,
      "my": 3220,
      "Ġà²¹à²Ĺ": 3221,
      "à²ªà²³": 3222,
      "Ġà¤ıà¤ķà¤¤": 3223,
      "Ġà²ľà²¨à²°à²²": 3224,
      "ivision": 3225,
      "ĠFor": 3226,
      "ĠGu": 3227,
      "à¤ħà¤°": 3228,
      "Ġà³«": 3229,
      "PA": 3230,
      "à¥ħ": 3231,
      "à²Łà²£": 3232,
      "à²¹à²µà²¨": 3233,
      "ĠSept": 3234,
      "ouse": 3235,
      "à²°à²®à²Ĺà²³à²¨": 3236,
      "Ġà¤¤à¤ķà¤¨": 3237,
      "à¤ĳ": 3238,
      "à²²à²®": 3239,
      "à²¡à²®": 3240,
      "Ġà²ķà²¦": 3241,
      "Ġdam": 3242,
      "ives": 3243,
      "Ġann": 3244,
      "Ġpolit": 3245,
      "ma": 3246,
      "ÙĨ": 3247,
      "Ġà¤ħà¤¸à¤®": 3248,
      "Ġair": 3249,
      "Ġà²Īà²¶": 3250,
      "ali": 3251,
      "à²ķà²°à²°": 3252,
      "Ġà³ª": 3253,
      "ended": 3254,
      "Ġappear": 3255,
      "Ġopen": 3256,
      "hor": 3257,
      "ĠÃ": 3258,
      "Ġà²ķà²ł": 3259,
      "à¤ľà¤¤": 3260,
      "à²°à²®à²µà²¨": 3261,
      "ush": 3262,
      "aving": 3263,
      "à²ħà²¨": 3264,
      "Ġà¤¸à¤®à¤Ŀà¤¤": 3265,
      "40": 3266,
      "vent": 3267,
      "à¤Ĳ": 3268,
      "à¥Īà¤Ĥ?": 3269,
      "Ġmuch": 3270,
      "à²¤à²¨à²¦": 3271,
      "ĠJu": 3272,
      "abharati": 3273,
      "arthabharati": 3274,
      "Ġmusic": 3275,
      "à²¾-": 3276,
      "à²µà²·": 3277,
      "à¤¤à¤ª": 3278,
      "à¤ªà¤¡": 3279,
      "à¤Łà¤¤": 3280,
      "Ġà²īà²ķ": 3281,
      "Ġà¤ħà¤¹à¤®à¤¦": 3282,
      "Ġlarge": 3283,
      "ĠSeptember": 3284,
      "à²µà²Ń": 3285,
      "à¥ĭ.": 3286,
      "à¤¼à¤¾à¥¤": 3287,
      "Ġpos": 3288,
      "Ġà¤ĵà¤²": 3289,
      "wards": 3290,
      "au": 3291,
      "ues": 3292,
      "à²¦à²¤": 3293,
      "à¤¿à¤ĥ": 3294,
      "Ġà²¸à²¦à²¨": 3295,
      "à²¬à²¸": 3296,
      "Ġà²¦à²¶à²ķ": 3297,
      "Ġà²ªà²°à²¸": 3298,
      "ĠHowever": 3299,
      "Ġvarthabharati": 3300,
      "ages": 3301,
      "Ġhead": 3302,
      "Ø§ÙĦ": 3303,
      "uj": 3304,
      "Ġà¤¹à¤«": 3305,
      "à¤®à¤ľ": 3306,
      "Ġà²¹à²®": 3307,
      "à²ªà²¯": 3308,
      "à³Ģ.": 3309,
      "Ġà¤ħà¤¹": 3310,
      "Ġtak": 3311,
      "Ġnorth": 3312,
      "ĠCol": 3313,
      "ored": 3314,
      "Ġà¤®à¤¤à¤²à¤¬": 3315,
      "Ġdescribed": 3316,
      "dom": 3317,
      "Ġà¤ħà¤¯": 3318,
      "Ġà¤«à¤¸à¤²": 3319,
      "Ġbook": 3320,
      "Ġmod": 3321,
      "à²°à²®à²ķ": 3322,
      "Ġ300": 3323,
      "ira": 3324,
      "Ġà²¹à²£à²¦": 3325,
      "Ġà¤ľà¤®à¤ķà¤°": 3326,
      "Ġoffic": 3327,
      "à¤°à¤ļà¤¨": 3328,
      "à²¯à²¯": 3329,
      "Ġà²¬à²²à²µ": 3330,
      "Ġà²īà²ªà²¨": 3331,
      "ĠSouth": 3332,
      "à¤¨à¤¯": 3333,
      "Ġà¤¸à¤ªà¤¨": 3334,
      "Ġà¤¹à¤¨": 3335,
      "Ġà¤īà¤¤à¤¨": 3336,
      "à²¶à²¨à²¦": 3337,
      "à¤¼,": 3338,
      "Ġperson": 3339,
      "uru": 3340,
      "Ġà¥Ń": 3341,
      "ody": 3342,
      "ified": 3343,
      "Ġà²Ĳà²¸": 3344,
      "à²ķà²³à²¨": 3345,
      "Ġ2007": 3346,
      "ny": 3347,
      "Ġaround": 3348,
      "à²§à²µà²¨": 3349,
      "à²°à²¤à²µ": 3350,
      "ection": 3351,
      "por": 3352,
      "Ġà²¨à²°à²¸": 3353,
      "aced": 3354,
      "Ġdesign": 3355,
      "Ġpublic": 3356,
      "Ġdiffer": 3357,
      "á¹": 3358,
      "à¤µà¤¹à¤¨": 3359,
      "à²·à²µà²¨": 3360,
      "à¤¡à¤®": 3361,
      "à²ļà²¦": 3362,
      "Ġprom": 3363,
      "Ġnow": 3364,
      "Ġà¤²à¤Ĺà¤¨": 3365,
      "Ġà²Ĩà²Ĺà²¬": 3366,
      "Ġà²ıà²ª": 3367,
      "à²ĺà²¨": 3368,
      "ĠJan": 3369,
      "Ġclass": 3370,
      "ta": 3371,
      "Ġif": 3372,
      "ĠGr": 3373,
      "ĠFinance": 3374,
      "ness": 3375,
      "à¤°à¤°": 3376,
      "Ġà²¸à²ľ": 3377,
      "Ġà¤¨à¤¤": 3378,
      "à²§à²Ĺà²³": 3379,
      "à²ĸà²¦": 3380,
      "Ġallow": 3381,
      "Ġestab": 3382,
      "ne": 3383,
      "Ġ`": 3384,
      "à¤µà¤¦": 3385,
      "ĠDec": 3386,
      "à¤°à¤¸à¤¨": 3387,
      "ĠWal": 3388,
      "à¤¨à¤¤à¤®": 3389,
      "ĠOne": 3390,
      "pril": 3391,
      "Ġcharacter": 3392,
      "ean": 3393,
      "ham": 3394,
      "ting": 3395,
      "à¤¸à¤ļ": 3396,
      "hel": 3397,
      "Ġà¤¶à¤ĸ": 3398,
      "à²«à²²": 3399,
      "Ġ48": 3400,
      "Ġà²¤à²¨à²Ĺ": 3401,
      "Ġà¤Ĩà¤¦à¤°": 3402,
      "Ġà²Ĭà²Ł": 3403,
      "ission": 3404,
      "Ġwebs": 3405,
      "à¤µà¤®": 3406,
      "à²·à²¯à²µ": 3407,
      "Ġmed": 3408,
      "Ġ39": 3409,
      "Ġcomments": 3410,
      "Ġprodu": 3411,
      "ically": 3412,
      "duced": 3413,
      "200": 3414,
      "49": 3415,
      "ble": 3416,
      "à²²à²¯à²Ĺà²³": 3417,
      "à²ķà²¬": 3418,
      "Ġà²ªà²²": 3419,
      "Ġà¤¦à¤¹": 3420,
      "à²¬à²Ĺà²³": 3421,
      "ĠApril": 3422,
      "Ġlast": 3423,
      "Ġeach": 3424,
      "à¤ħà¤ªà¤¨": 3425,
      "Ġhel": 3426,
      "à²²à²¸à²ķ": 3427,
      "Ġà²ĩà²¤à²°à²°": 3428,
      "Ġà²®à²²à²Ĺ": 3429,
      "Ġweek": 3430,
      "Ġwebsite": 3431,
      "à²ĵ": 3432,
      "Ġà¤ħà¤ľà¤¯": 3433,
      "Ġà²İà²ķà²°": 3434,
      "Ġà¤¶à¤¤à¤ķ": 3435,
      "ately": 3436,
      "à¤°à¤¤à¤²à¤¬": 3437,
      "icy": 3438,
      "à¤ĩà¤«": 3439,
      "à²·à²£à²µ": 3440,
      "à²ĺà²Ł": 3441,
      "Ġvis": 3442,
      "ĠNorth": 3443,
      "ĠAustral": 3444,
      "Ġi": 3445,
      "à²µà²ľ": 3446,
      "Ġà²Ĺà²¦": 3447,
      "ani": 3448,
      "Ġtook": 3449,
      "Ġrest": 3450,
      "Ġvers": 3451,
      "Ġstate": 3452,
      "ĠEurop": 3453,
      "Ġà¤Īà¤°": 3454,
      "Ġsuccess": 3455,
      "ty": 3456,
      "Ã¤": 3457,
      "à¤³": 3458,
      "à¤¾\"": 3459,
      "Ġà¤ķà¤ļ": 3460,
      "à²²à²¯à²µ": 3461,
      "à¥Ī;": 3462,
      "Ġà²Ĩà²ļà²°à²£": 3463,
      "Ġà¤¤à¤Ł": 3464,
      "ants": 3465,
      "Ġstart": 3466,
      "à¤īà¤¤": 3467,
      "à²¥à²³à²ķ": 3468,
      "Ġà¤Ĭà¤°": 3469,
      "line": 3470,
      "Ã¡": 3471,
      "à¤ķà¤²à¤¨": 3472,
      "à²¯à²¶": 3473,
      "à²®à²¶": 3474,
      "ita": 3475,
      "Ġbased": 3476,
      "ster": 3477,
      "Ġwhat": 3478,
      "Ġà¤Īà¤®": 3479,
      "Ġjust": 3480,
      "Ġà¤ĭà¤·": 3481,
      "à²ķà²£": 3482,
      "à²®à²Ł": 3483,
      "à²ªà²Ĺ": 3484,
      "à¤¼à¥ģ": 3485,
      "Ġà²¦à²¨": 3486,
      "Ġwon": 3487,
      "Ġà¤§à¤®à¤ķ": 3488,
      "Ġmillion": 3489,
      "II": 3490,
      "Ġà¤®à¤£": 3491,
      "Ġà²¬à²¨": 3492,
      "Ġà²²à²µ": 3493,
      "ility": 3494,
      "Ġà²Ĩà²Ĺà²¸": 3495,
      "Ġà²¸à²°à²³": 3496,
      "ays": 3497,
      "à²ĺà²µ": 3498,
      "à²Ĩà²¦à²°": 3499,
      "ights": 3500,
      "ected": 3501,
      "28": 3502,
      "à²Łà²¡": 3503,
      "Ġpoin": 3504,
      "à²·à²£à²Ĺà²³": 3505,
      "ague": 3506,
      "Ġkm": 3507,
      "27": 3508,
      "Ġà¤¸à¤¦à¤¨": 3509,
      "Ġà¤Ĩà¤ıà¤Ĺ": 3510,
      "à¤ľà¤¨à¤ķ": 3511,
      "Ġ44": 3512,
      "ĠLifestyle": 3513,
      "ĠGe": 3514,
      "ĠGer": 3515,
      "oci": 3516,
      "à²°à²ķà²°à²£à²¦à²²": 3517,
      "by": 3518,
      "Ġà¤ªà¤Łà¤¨": 3519,
      "à¤ªà¤¶": 3520,
      "Ġà²¨à²Łà²¨": 3521,
      "à²§à²¦à²²": 3522,
      "Ġà²Ĺà²²": 3523,
      "Ġcr": 3524,
      "Ġà²¯à²²": 3525,
      "à²¤à²°à²°": 3526,
      "ĠSe": 3527,
      "Ġrequ": 3528,
      "Ġlat": 3529,
      "Ġlive": 3530,
      "acy": 3531,
      "ĠPh": 3532,
      "Ġspecies": 3533,
      "uary": 3534,
      "à²Ĺà²ª": 3535,
      "à¤¤à¤¸": 3536,
      "à¤¯à¤¶": 3537,
      "Ġà¤¨à¤·": 3538,
      "Ġpost": 3539,
      "à²¯à²ķà²µ": 3540,
      "ĠMus": 3541,
      "ĠFl": 3542,
      "ops": 3543,
      "Ġà²®à²Ĺà²¨": 3544,
      "Ġfollows": 3545,
      "Ġreceived": 3546,
      "'s": 3547,
      "Ĥ¹": 3548,
      "à¤°à¤¯à¤¤": 3549,
      "à¤ķà¤¥": 3550,
      "Ġà¤ĩà¤ľ": 3551,
      "Ġworld": 3552,
      "Ġmajor": 3553,
      "Ġà²ħà²µà²¨à²¨": 3554,
      "Ġchild": 3555,
      "Ġsingle": 3556,
      "ti": 3557,
      "à¤²à¤¦": 3558,
      "Ġà²ªà²¦à²ķ": 3559,
      "Ġtake": 3560,
      "à¤¶à¤µ": 3561,
      "Ġà²¤à²Ł": 3562,
      "era": 3563,
      "Ġà¤¶à¤¹": 3564,
      "à²¥à²Ĺ": 3565,
      "Ġschool": 3566,
      "rote": 3567,
      "Ġ2000": 3568,
      "Ġà¤Ĳà¤¤": 3569,
      "Ġ65": 3570,
      "à²°à²ķà²°à²£à²¦": 3571,
      "60": 3572,
      "à²¿;": 3573,
      "à³Ĥà²Ĥ": 3574,
      "à²¬à²¯": 3575,
      "Ġav": 3576,
      "à²§à²ªà²Ł": 3577,
      "Ġà¤ļà¤¤": 3578,
      "alu": 3579,
      "Ġdem": 3580,
      "à²İà²ļ": 3581,
      "Ġthose": 3582,
      "vious": 3583,
      "ox": 3584,
      "à²³à²°": 3585,
      "Ġà²ĩà²ª": 3586,
      "Ġà¤īà¤ªà¤¨": 3587,
      "à¤Īà¤ķ": 3588,
      "Ġà²Ĺà²Ł": 3589,
      "Ġà²¶à²¤": 3590,
      "à¥Ģà¤Ĥ.": 3591,
      "ĠAss": 3592,
      "ades": 3593,
      "Ġdeath": 3594,
      "Ġleg": 3595,
      "Ġupd": 3596,
      "âĢ": 3597,
      "à¤½": 3598,
      "à²Ĺà²Ĺà²³à²¨": 3599,
      "à²ķà²®à²Ĺà²³": 3600,
      "Ġà²Ĵà²²": 3601,
      "ĠAg": 3602,
      "Ġ--": 3603,
      "ropical": 3604,
      "Ġpublished": 3605,
      "\",": 3606,
      "ka": 3607,
      "ÙĬ": 3608,
      "à²Łà²£à²¦": 3609,
      "Ġsu": 3610,
      "à¥ĥà¤Ĥ": 3611,
      "ĠAf": 3612,
      "ĠMc": 3613,
      "ech": 3614,
      "ides": 3615,
      "ĠThere": 3616,
      "Ġà¤¬à¤¹à¤¨": 3617,
      "ĠNov": 3618,
      "à²²à²¸à²µà²¨": 3619,
      "que": 3620,
      "Ġadv": 3621,
      "Ġsystem": 3622,
      "||": 3623,
      "ÉĹ": 3624,
      "à¤²à¤ª": 3625,
      "Ġà¤¹à¤ķ": 3626,
      "à²£à²°": 3627,
      "Ġà²°à²¹": 3628,
      "Ġcare": 3629,
      "à²¤à²°à²¦à²²": 3630,
      "aster": 3631,
      "ĠPar": 3632,
      "Ġ42": 3633,
      "Ġ43": 3634,
      "ried": 3635,
      "ĠStates": 3636,
      "Ġà¤¸à¤®à¤Ŀà¤¨": 3637,
      "ĠJuly": 3638,
      "ched": 3639,
      "day": 3640,
      "à¤°à¤¥": 3641,
      "à²¤à²³": 3642,
      "à²µà²Ĺà²³": 3643,
      "à²Ĥ,": 3644,
      "à²·à²¯à²¦à²²": 3645,
      "Ġà¤Ńà¤Ł": 3646,
      "Ġtop": 3647,
      "Ġstorm": 3648,
      "ulation": 3649,
      "aged": 3650,
      "ĠEx": 3651,
      "Ġà²¬à²¹à²³à²·": 3652,
      "à¤²à¤Ń": 3653,
      "Ġà¤¬à¤°à¤¸": 3654,
      "à²ªà²ķà²°": 3655,
      "à¤¶à¤®": 3656,
      "Ġà²°à²«": 3657,
      "à¤£à¤¤": 3658,
      "ret": 3659,
      "Ġsince": 3660,
      "Ġà²¶à²¸": 3661,
      "Ġwrote": 3662,
      "ital": 3663,
      "Ġhand": 3664,
      "Ġlate": 3665,
      "Ġgovernment": 3666,
      "ĠNo": 3667,
      ".\\": 3668,
      "Ġà¤¬à¤ļà¤¨": 3669,
      "arr": 3670,
      "Ġfive": 3671,
      "Ġà²ħà²µà²°à²²": 3672,
      "Ġline": 3673,
      "Ġ55": 3674,
      "ording": 3675,
      "Ġà²ļà²²à²¨à²ļ": 3676,
      "com": 3677,
      "fess": 3678,
      "à²²à²¯à²ķ": 3679,
      "à¤¨à¤¹": 3680,
      "à¤¯à¤ľ": 3681,
      "à¤¸à¤Ĺà¤¢": 3682,
      "Ġà¤¬à¤§": 3683,
      "à¤Łà¤ķà¤°": 3684,
      "Ġsouth": 3685,
      "à¤°à¤ķà¤Ł": 3686,
      "ively": 3687,
      "uss": 3688,
      "Ġvo": 3689,
      "Ġstory": 3690,
      "à²ªà²¨à²µà²°": 3691,
      "Ġpartic": 3692,
      "fa": 3693,
      "Ê¼": 3694,
      "Ġà¤¦à¤¶à¤ķ": 3695,
      "Ġturn": 3696,
      "Ġsl": 3697,
      "Ġport": 3698,
      "Ġdr": 3699,
      "Ġdue": 3700,
      "Ġà¤īà¤ªà¤Ń": 3701,
      "ĠDN": 3702,
      "ĠDuring": 3703,
      "Ġà²¸à²¹à²ľà²µ": 3704,
      "Ġà¤Īà¤¸": 3705,
      "Ġ%": 3706,
      "à¤°à¤ķà¤°": 3707,
      "à¤¯à¤¬": 3708,
      "Ġà¤¬à¤ķà¤°": 3709,
      "Ġà¥®": 3710,
      "rench": 3711,
      "Ġeven": 3712,
      "ĠDecember": 3713,
      "aff": 3714,
      "ks": 3715,
      "Ã¨": 3716,
      "à¤ķà¤¶": 3717,
      "à¤¹à¤¨à¤¤": 3718,
      "Ġà¤°à¤¤": 3719,
      "Ġà²µà²ľ": 3720,
      "à²·à²¨à²²": 3721,
      "Ġà¤ıà¤ļ": 3722,
      "Ġwww": 3723,
      "Ġfur": 3724,
      "à²°à²ķà²µ": 3725,
      "à¤Ĩà¤ľ": 3726,
      "à²°à²¸à²Ń": 3727,
      "ĠRes": 3728,
      "Ġà²¤à²®à²Ĺ": 3729,
      "à²ĩà²²": 3730,
      "ĠâĤ¹": 3731,
      "Ġbuild": 3732,
      "itar": 3733,
      "let": 3734,
      "Ġà²¡à²¬": 3735,
      "ĠBy": 3736,
      "ĠWe": 3737,
      "Ġà²ħà²ªà²ĺ": 3738,
      "ĠChrist": 3739,
      "Ġattem": 3740,
      "Ġà³§à³¯": 3741,
      "Ġincre": 3742,
      "Ġauthor": 3743,
      "Ġfamily": 3744,
      "ĠJanuary": 3745,
      "GB": 3746,
      "ling": 3747,
      "à²¦à²£": 3748,
      "à²Ĺà²Ĺà²³à²²": 3749,
      "Ġà²¸à²¬": 3750,
      "Ġà¤ĩà¤®à¤°": 3751,
      "Ġà²Ĺà²³à²²": 3752,
      "Ġà²Īà²Ĺà²²": 3753,
      "ional": 3754,
      "Ġnamed": 3755,
      "à²²à²¸à²¦": 3756,
      "Ġ2004": 3757,
      "Ġplayer": 3758,
      "Ġà¤µà¤¨à¤¡": 3759,
      "26": 3760,
      "ged": 3761,
      "iod": 3762,
      "à²¦à²¶": 3763,
      "à²¸à²¸": 3764,
      "Ġà²ħà²ĸ": 3765,
      "à³Ģ,": 3766,
      "Ġà²µà²ļà²¨": 3767,
      "atory": 3768,
      "à²ķà²°à²µ": 3769,
      "ilar": 3770,
      "Ġref": 3771,
      "Ġgreat": 3772,
      "à²µà²£à²Ĺ": 3773,
      "ĠEd": 3774,
      "ĠEth": 3775,
      "Ġà³¬": 3776,
      "ians": 3777,
      "ĠYork": 3778,
      "Ġappro": 3779,
      "ences": 3780,
      "Ġà¤Ĺà¤łà¤¬": 3781,
      "á¸": 3782,
      "à²²à²°à²¨": 3783,
      "à¤Ĥ.": 3784,
      "à²¯à²·": 3785,
      "à²³à²ľ": 3786,
      "à²Ńà²µà²¨": 3787,
      "Ġopp": 3788,
      "Ġmen": 3789,
      "Ġhum": 3790,
      "Ġny": 3791,
      "omet": 3792,
      "Ġgames": 3793,
      "Ġ46": 3794,
      "Ġarch": 3795,
      "Ġà¤ĭà¤£": 3796,
      "arnat": 3797,
      "Ġrepresent": 3798,
      "Ġoriginal": 3799,
      "ger": 3800,
      "Ġà²Ŀ": 3801,
      "à¤¯à¤¡": 3802,
      "à¤¦à¤¤": 3803,
      "Ġà¤µà¤ľà¤¨": 3804,
      "Ġà²µà²¶à²ķ": 3805,
      "à²ļà²³": 3806,
      "à²¶à²²": 3807,
      "Ġhal": 3808,
      "Ġhome": 3809,
      "Ġà²¸à²®à²Ĺ": 3810,
      "ently": 3811,
      "Ġreal": 3812,
      "Ġ47": 3813,
      "à²£à²¤": 3814,
      "à¤·à¤§": 3815,
      "Ġcamp": 3816,
      "Ġoften": 3817,
      "Ġpres": 3818,
      "Ġà¤¸à¤®à¤ķ": 3819,
      "Ġà¥¤\"": 3820,
      "ĠCan": 3821,
      "urric": 3822,
      "ĠNational": 3823,
      "ĠKing": 3824,
      "Ġplace": 3825,
      "Ġclub": 3826,
      "ĠReg": 3827,
      "hu": 3828,
      "Éĵ": 3829,
      "Ùħ": 3830,
      "à¤°à¤Ĺà¤¤": 3831,
      "à²¤à²µà²°": 3832,
      "à²®à²§": 3833,
      "à²ªà²®": 3834,
      "ined": 3835,
      "à²ľà²¯à²ª": 3836,
      "ature": 3837,
      "Ġà²īà²®": 3838,
      "Ġmy": 3839,
      "Ġmark": 3840,
      "Ġà²¬à²°à²¬": 3841,
      "Ġvery": 3842,
      "ope": 3843,
      "Ġorgan": 3844,
      "ĠMarch": 3845,
      "ĠEngland": 3846,
      "gu": 3847,
      "oad": 3848,
      "ped": 3849,
      "ĠÐ": 3850,
      "Ġà¤ªà¤ļ": 3851,
      "à¤Łà¤µà¤°": 3852,
      "Ġà¤ħà¤Ł": 3853,
      "à²£à²²": 3854,
      "Ġà²İà²ª": 3855,
      "Ġà¤Ńà¤Ĺ": 3856,
      "rew": 3857,
      "Ġà²ļà²¨": 3858,
      "Ġposs": 3859,
      "ĠChe": 3860,
      "Ġgun": 3861,
      "ĠDep": 3862,
      "Ġ2003": 3863,
      "à¤ıà¤¸à¤ª": 3864,
      "eal": 3865,
      "Ġtyp": 3866,
      "Ġà²ľà²ª": 3867,
      "Ġinfl": 3868,
      "ĠCode": 3869,
      "omb": 3870,
      "omen": 3871,
      "Ġ190": 3872,
      "Ġà²¬à²°à²¹": 3873,
      "à²ĺà²°": 3874,
      "à²¨à²¡à²¦à²²": 3875,
      "Ġeng": 3876,
      "Ġevent": 3877,
      "ead": 3878,
      "ii": 3879,
      "à²¾!": 3880,
      "à¥ģ,": 3881,
      "Ġà²ĩà²¦à²²": 3882,
      "à¤£à¤¸": 3883,
      "Ġà¤ıà¤°": 3884,
      "à²¥à²µà²¨": 3885,
      "Ġside": 3886,
      "Ġcame": 3887,
      "Ġbest": 3888,
      "ĠCor": 3889,
      "Ġà¤Ĳà¤ª": 3890,
      "ĠFrench": 3891,
      "à¤īà¤¥": 3892,
      "avy": 3893,
      "Ġà¤ħà¤ªà¤¡": 3894,
      "Ġexpl": 3895,
      "mi": 3896,
      "self": 3897,
      "yn": 3898,
      "Äģ": 3899,
      "à¤°à¤·": 3900,
      "à¤¶à¤¯": 3901,
      "Ġbatt": 3902,
      "idd": 3903,
      "ott": 3904,
      "Ġtrad": 3905,
      "wood": 3906,
      "Ġbuilt": 3907,
      "gy": 3908,
      "ky": 3909,
      "ler": 3910,
      "à²Łà²°à²²": 3911,
      "à²ľà²ª": 3912,
      "Ġà¤Ĺà¤¡": 3913,
      "Ġwater": 3914,
      "à¤ĩà¤¸à¤ķ": 3915,
      "ĠAb": 3916,
      "ĠMan": 3917,
      "ival": 3918,
      "à²¨à²µà²¦": 3919,
      "Ġà¥§à¥¬": 3920,
      "à¥Ĥà¤ģà¥¤": 3921,
      "Ġà²¤à²°à²ķ": 3922,
      "Ġà²ĩà²µà²¤": 3923,
      "Ġà¤ĸà¤¨": 3924,
      "Ġthird": 3925,
      "Ġget": 3926,
      "ĠHis": 3927,
      "ots": 3928,
      "Ġ49": 3929,
      "Ġ400": 3930,
      "Ġà²µà²¸à²¤": 3931,
      "ruction": 3932,
      "Ġincluded": 3933,
      "arnataka": 3934,
      "aul": 3935,
      "Ġà¤ħà¤¸à¤²": 3936,
      "Ġterm": 3937,
      "à¤ıà¤¡": 3938,
      "à¤ļà¤ķà¤°": 3939,
      "Ġà¤ªà¤°à¤¸": 3940,
      "Ġà²ļà²ª": 3941,
      "à²°à²£à²µà²¨": 3942,
      "à²°à²ķà²Łà²µ": 3943,
      "à¤°à¤µà¤ķ": 3944,
      "à²¯à²®à²¦": 3945,
      "umb": 3946,
      "Ġtrack": 3947,
      "Ġplayed": 3948,
      "ĠNovember": 3949,
      "ms": 3950,
      "Ġà²¬à²¤": 3951,
      "Ġà²ĩà²ļ": 3952,
      "à³Ī,": 3953,
      "à²¥à²Ĺà²³": 3954,
      "Ġà²Īà²¡": 3955,
      "Ġmake": 3956,
      "Ġ57": 3957,
      "à²·à²£à²¦": 3958,
      "à²ħà²²": 3959,
      "Ġà²Ĳà²Ł": 3960,
      "Ġyard": 3961,
      "Ġà¥§à¥¦": 3962,
      "Ġlocal": 3963,
      "ĠGerman": 3964,
      "gr": 3965,
      "ience": 3966,
      "uz": 3967,
      "à²¾'": 3968,
      "à¤¨à¤¬": 3969,
      "Ġà²ħà²Ł": 3970,
      "Ġà¤°à¤£": 3971,
      "Ġà²Ĩà²§à²°": 3972,
      "iness": 3973,
      "à²ľà²§": 3974,
      "Ġà¤īà¤§à¤°": 3975,
      "à²Ńà²Ĺ": 3976,
      "elt": 3977,
      "idge": 3978,
      "à²łà²¦": 3979,
      "Ġstill": 3980,
      "Ġalthough": 3981,
      "Ġprog": 3982,
      "ĠAfric": 3983,
      "ĠEthics": 3984,
      "qa": 3985,
      "tain": 3986,
      "ĠØ§ÙĦ": 3987,
      "à²¯à²ļ": 3988,
      "à¤®à¤°à¤£": 3989,
      "à¤Ĺà¤£": 3990,
      "à²£à²¬à²¹": 3991,
      "à²·à²¯à²Ĺà²³à²¨": 3992,
      "ino": 3993,
      "Ġlist": 3994,
      "iven": 3995,
      "Ġà²¬à²³à²²": 3996,
      "à²ħà²µà²°": 3997,
      "Ġà¤Ńà¤°à¤¨": 3998,
      "Ġshort": 3999,
      "ĠComp": 4000,
      "ĠDNPA": 4001,
      "à¤¸à¤°à¤ķ": 4002,
      "à²¸à²£": 4003,
      "Ġà¤¬à¤®": 4004,
      "Ġà¤°à¤®": 4005,
      "Ġà¤°à¤¦": 4006,
      "Ġtem": 4007,
      "Ġà²°à²¤": 4008,
      "itary": 4009,
      "Ġrepl": 4010,
      "urs": 4011,
      "ĠEduc": 4012,
      "à²ķà²°à²£à²¦": 4013,
      "à²¶à²¨à²¦à²²": 4014,
      "à¤ıà¤¸à¤ıà¤¸": 4015,
      "Ġprevious": 4016,
      "ternational": 4017,
      "Ġmoved": 4018,
      "Ġconsidered": 4019,
      "35": 4020,
      "be": 4021,
      "ja": 4022,
      "oard": 4023,
      "à¤ķà¤Ń": 4024,
      "Ġà¤¸à¤Ł": 4025,
      "à¤µà¤¯à¤¨": 4026,
      "à¤Ĺà¤ª": 4027,
      "Ġà¤Ĺà¤¨": 4028,
      "à¤ĸà¤Ń": 4029,
      "à¤Ńà¤µà¤¤": 4030,
      "lection": 4031,
      "iles": 4032,
      "iva": 4033,
      "ĠRec": 4034,
      "Ġiss": 4035,
      "ĠJes": 4036,
      "Ġperiod": 4037,
      "à¤¿.": 4038,
      "à²Ĺà²¦à²°": 4039,
      "Ġà¤Ĩà¤Ł": 4040,
      "à²¶à²ªà²¡": 4041,
      "Ġà¤ıà¤¸à¤ª": 4042,
      "Ġà²¯à²¨": 4043,
      "ivil": 4044,
      "à¤ħà¤¬": 4045,
      "Ġwithin": 4046,
      "Ġanother": 4047,
      "Ġchang": 4048,
      "ior": 4049,
      "Ġà¤ķà¤¥à¤¨": 4050,
      "à¤®à¤§": 4051,
      "Ġà²¸à²ª": 4052,
      "à¤µà¤¡": 4053,
      "à¥¤à¥¤": 4054,
      "Ġobs": 4055,
      "à²«à²²à²µ": 4056,
      "Ġà¤īà¤ªà¤¦": 4057,
      "ĠDivision": 4058,
      "Ġà²Ĳà²¤": 4059,
      "Ġnext": 4060,
      "Ġbelie": 4061,
      "ĠEducation": 4062,
      "aun": 4063,
      "ket": 4064,
      "Ġel": 4065,
      "à¤®à¤¹à¤¤": 4066,
      "à¤ªà¤ļ": 4067,
      "Ġà²¬à²¯à²²": 4068,
      "Ġà¤ħà¤°à¤µ": 4069,
      "Ġà¤²à¤¹à¤°": 4070,
      "Ġaff": 4071,
      "Ġà²Īà²°": 4072,
      "iter": 4073,
      "ices": 4074,
      "à¤ķà¤¤à¤®": 4075,
      "ĠSing": 4076,
      "ached": 4077,
      "à²¬à²°à²¨": 4078,
      "Ġ51": 4079,
      "uted": 4080,
      "ĠDyl": 4081,
      "Ġà²¤à²¨à²ķ": 4082,
      "ĠGo": 4083,
      "ĠGener": 4084,
      "Ġka": 4085,
      "Ġà¤łà¤¹à¤°": 4086,
      "ograph": 4087,
      "Ġà²ıà²ķà²¦": 4088,
      "Ġarr": 4089,
      "à²īà²¦": 4090,
      "ĠEnglish": 4091,
      "Ġaddition": 4092,
      "Ġevery": 4093,
      "Ġdifferent": 4094,
      "ĠDylan": 4095,
      "par": 4096,
      "à²ķà²Ĺà²³à²¨": 4097,
      "à¥Ī!": 4098,
      "à¤Ĺà¤¸": 4099,
      "à²£à²Ĺà²³à²²": 4100,
      "Ġtw": 4101,
      "à¤ıà¤Ł": 4102,
      "Ġà¤ĩà¤°": 4103,
      "reen": 4104,
      "ano": 4105,
      "eder": 4106,
      "ĠIP": 4107,
      "Ġ56": 4108,
      "Ġà¤ķà¤®à¤²": 4109,
      "à²ħà²ª": 4110,
      "Ġ?\"": 4111,
      "ĠState": 4112,
      "Ġà¥§à¥®": 4113,
      "Ġcommun": 4114,
      "Ġcommand": 4115,
      "oon": 4116,
      "Ġà¤¸à¤°à¤¸": 4117,
      "Ġà¤Ķà¤·à¤§": 4118,
      "Ġway": 4119,
      "Ġà²Ĵà²Ĺ": 4120,
      "Ġ52": 4121,
      "Ġvideo": 4122,
      "Ġ64": 4123,
      "Ġcomment": 4124,
      "Ġleft": 4125,
      "Ġà²¬à²¡à²µà²°": 4126,
      "Ġsongs": 4127,
      "Ġview": 4128,
      "iversity": 4129,
      "Ġà¤Ĩà¤ĩà¤ı": 4130,
      "Ġestabl": 4131,
      "à²Ĺà²£à²¦à²²": 4132,
      "à¥ĩà¤Ĥà¤ĥ": 4133,
      "à²¹à²£": 4134,
      "Ġà¤¤à¤¹à¤¸": 4135,
      "ense": 4136,
      "ories": 4137,
      "ald": 4138,
      "Ġbas": 4139,
      "Ġdra": 4140,
      "ĠAct": 4141,
      "ention": 4142,
      "Ġread": 4143,
      "Ġkill": 4144,
      "ĠKannada": 4145,
      "Ġclaim": 4146,
      "Ġroad": 4147,
      "ances": 4148,
      "Ð¸": 4149,
      "à¥ĩ?": 4150,
      "Ġà¤¸à¤Ĺ": 4151,
      "Ġà¤Ĩà¤Ń": 4152,
      "Ġà²Ĺà²¤": 4153,
      "Ġà²¯à²ľ": 4154,
      "à¤ĩà¤¬": 4155,
      "Ġna": 4156,
      "ĠMin": 4157,
      "à¤Łà¤°à¤¸": 4158,
      "Ġheld": 4159,
      "ĠWhen": 4160,
      "Ġà¤ľà¤¨à¤°à¤²": 4161,
      "ries": 4162,
      "riend": 4163,
      "à²ħà²¦": 4164,
      "Ġà¤ĳà¤Ł": 4165,
      "embers": 4166,
      "ball": 4167,
      "ev": 4168,
      "à²³à²¸": 4169,
      "Ġà¤¨à¤®à¤ķ": 4170,
      "Ġà²İà²®": 4171,
      "à²¶à²ª": 4172,
      "Ġà¤¯à¤ľ": 4173,
      "Ġsent": 4174,
      "Ġà²Īà²ķ": 4175,
      "ison": 4176,
      "Ġà²¯à²ķ": 4177,
      "Ġpresent": 4178,
      "Ġrefer": 4179,
      "ĠRoy": 4180,
      "Ġorder": 4181,
      "Ġà¤Ńà¤°à¤ª": 4182,
      "Ġà²ĭà²·": 4183,
      "ertain": 4184,
      "Ġmonth": 4185,
      "Ġtitle": 4186,
      "ios": 4187,
      "mit": 4188,
      "Ùĩ": 4189,
      "Ġà²®à²°à²£": 4190,
      "Ġà²ħà²Ĺà²²": 4191,
      "Ġà¤ľà¤¯à¤ª": 4192,
      "Ġà¤²à¤µ": 4193,
      "à²£à²¯": 4194,
      "à¤ļà¤µ": 4195,
      "Ġà¤Ńà¤¡": 4196,
      "Ġà²Īà²¤à²¨": 4197,
      "Ġnov": 4198,
      "ĠMov": 4199,
      "à²¤à²µà²µ": 4200,
      "Ġrole": 4201,
      "ublic": 4202,
      "Ġsimilar": 4203,
      "urricane": 4204,
      "Ġestablished": 4205,
      "90": 4206,
      "li": 4207,
      "ua": 4208,
      "Ġet": 4209,
      "Ġir": 4210,
      "à²ľà²¦à²²": 4211,
      "à¤Īà¤¸": 4212,
      "à¤£à¤ķ": 4213,
      "rest": 4214,
      "isc": 4215,
      "Ġmi": 4216,
      "omin": 4217,
      "Ġeast": 4218,
      "à²®à²¨à²¨": 4219,
      "ote": 4220,
      "ula": 4221,
      "ape": 4222,
      "à¥Ĥà¤Ĥ,": 4223,
      "ĠChar": 4224,
      "ika": 4225,
      "à²°à²ķà²Łà²£": 4226,
      "wa": 4227,
      "à²µà²Ĺ": 4228,
      "à¤¯à¤¥": 4229,
      "inc": 4230,
      "à²¶à²¯": 4231,
      "Ġà¤ıà¤Ĺ": 4232,
      "read": 4233,
      "à¤Ľà¤¨": 4234,
      "à²¯à²°à²²": 4235,
      "à²·à²£à²ķ": 4236,
      "ĠGro": 4237,
      "Ġstar": 4238,
      "Ġviews": 4239,
      "à¤²à¤ļà¤¸": 4240,
      "Ġhalf": 4241,
      "à¤¯à¤§": 4242,
      "Ġà¤¨à¤¸": 4243,
      "Ġà²¬à²ļ": 4244,
      "à²ļà²£": 4245,
      "Ġcour": 4246,
      "Ġbi": 4247,
      "Ġreported": 4248,
      "Ġà¤§à¤®": 4249,
      "ĠPM": 4250,
      "Ġà²ĩà²°à²¬à²¹": 4251,
      "Ġright": 4252,
      "Ġà¤¬à¤¦à¤²à¤¨": 4253,
      "Ġà²Ĭà²¹": 4254,
      "Ġsupport": 4255,
      "ck": 4256,
      "ches": 4257,
      "side": 4258,
      "à¤²à¤ľ": 4259,
      "Ġà¤¦à¤¯": 4260,
      "Ġà¤²à¤®": 4261,
      "à¤ĸà¤¦": 4262,
      "estern": 4263,
      "icle": 4264,
      "Ġà¤¬à¤¨à¤ķà¤°": 4265,
      "usiness": 4266,
      "apan": 4267,
      "ocial": 4268,
      "ĠGeor": 4269,
      "min": 4270,
      "à³ģ(": 4271,
      "à²®à²Ĺà²³à²¨": 4272,
      "à¤¦à¤¦": 4273,
      "Ġà¤¨à¤¶": 4274,
      "à²·à²¯à²µà²¨": 4275,
      "à¤ıà¤¶à¤¨": 4276,
      "à²ļà²µ": 4277,
      "à²ļà²¦à²²": 4278,
      "Ġà¤Ĩà¤°à¤ķ": 4279,
      "Ġà¤ĩà¤§à¤°": 4280,
      "Ġà²ľà²Ĺ": 4281,
      "esc": 4282,
      "Ġcult": 4283,
      "Ġinform": 4284,
      "à²ĸà²¨": 4285,
      "ĠCity": 4286,
      "ĠHa": 4287,
      "Ġà³Ń": 4288,
      "ably": 4289,
      "Ġ2024": 4290,
      "à²ĩà²¤": 4291,
      "Ġà¤Ĩà¤¨à¤¨": 4292,
      "Ġimport": 4293,
      "ĠLeague": 4294,
      "ĠGeneral": 4295,
      "45": 4296,
      "ract": 4297,
      "sc": 4298,
      "va": 4299,
      "ÃŃ": 4300,
      "Ġà²ķà²®à²²": 4301,
      "à¤Łà¤¬": 4302,
      "à¤¡à¤¬": 4303,
      "Ġà²Ĩà²ľ": 4304,
      "à¤£à¤µà¤¤": 4305,
      "Ġà²ļà²¤": 4306,
      "Ġmag": 4307,
      "ĠAM": 4308,
      "Ġless": 4309,
      "ĠPer": 4310,
      "ĠDav": 4311,
      "Ġà¤¸à¤°à¤²": 4312,
      "Ġexper": 4313,
      "Ġshould": 4314,
      "à¤¯à¤¸à¤Ń": 4315,
      "ological": 4316,
      "Ġà¤ħà¤«à¤Ĺ": 4317,
      "ele": 4318,
      "à²¨à²¬": 4319,
      "à¥Ģ?": 4320,
      "Ġà¤¬à¤ķ": 4321,
      "Ġà¤°à¤£à¤¨": 4322,
      "à²¹à²¬": 4323,
      "à²µà²°à²Ĺà²³à²¨": 4324,
      "esp": 4325,
      "Ġdest": 4326,
      "à²łà²¡": 4327,
      "à²ĺà²ķ": 4328,
      "Ġbeg": 4329,
      "ava": 4330,
      "ĠWith": 4331,
      "Ġ250": 4332,
      "Ġà³§à³¦": 4333,
      "ED": 4334,
      "eep": 4335,
      "mp": 4336,
      "à¥ĩ)": 4337,
      "Ġà¤¦à¤°à¤µ": 4338,
      "à²¬à²µ": 4339,
      "Ġà¤ĩà¤µ": 4340,
      "Ġà¤ĩà¤¶": 4341,
      "Ġsug": 4342,
      "atic": 4343,
      "Ġfew": 4344,
      "Ġdel": 4345,
      "Ġled": 4346,
      "ĠRed": 4347,
      "Ġformer": 4348,
      "à¤ħà¤§": 4349,
      "ĠWill": 4350,
      "ĠEl": 4351,
      "osp": 4352,
      "à²µà²ķà²ª": 4353,
      "Ġà²Ĺà²®à²¨à²ķ": 4354,
      "Ġrecorded": 4355,
      "Ġà¤®à¤¶à¤¹": 4356,
      "29": 4357,
      "ga": 4358,
      "Ð¾": 4359,
      "à²²à²ľ": 4360,
      "Ġà²°à²¶": 4361,
      "ering": 4362,
      "Ġold": 4363,
      "itu": 4364,
      "isa": 4365,
      "Ġband": 4366,
      "Ġtown": 4367,
      "Ġà²Ĩà²Ĺà²¦": 4368,
      "Ġà²¸à²°à²¬à²°": 4369,
      "Ġà²ıà²·": 4370,
      "à²®à²ķà²µ": 4371,
      "Ġà¤ħà¤ªà¤²": 4372,
      "ploy": 4373,
      "Ġpopular": 4374,
      "Ġfurther": 4375,
      "eh": 4376,
      "work": 4377,
      "à¤®à¤®": 4378,
      "à²®à²®": 4379,
      "à²£à²ª": 4380,
      "à²§à²¨à²¦": 4381,
      "à²µà²¨à²µà²¨": 4382,
      "Ġfield": 4383,
      "à²ĸà²ķ": 4384,
      "ĠSim": 4385,
      "Ġà²¸à²®à²¨": 4386,
      "Ġà²¸à²¹à²ķà²°": 4387,
      "ĠGod": 4388,
      "ĠOr": 4389,
      "Ġspe": 4390,
      "Ġnoted": 4391,
      "Ġbecome": 4392,
      "Ġhistory": 4393,
      "AI": 4394,
      "qi": 4395,
      "à²¤à²Ĺà²³à²²": 4396,
      "Ġà²¹à²²à²µà²°": 4397,
      "à³Ĭ.": 4398,
      "à¤Łà¤¸": 4399,
      "Ġà¤µà¤ļà¤¨": 4400,
      "Ġà¤ļà¤®à¤ķ": 4401,
      "à²Ńà²Ł": 4402,
      "Ġsol": 4403,
      "Ġwin": 4404,
      "Ġà²Īà²¤": 4405,
      "Ġà¤ıà¤ķà¤®": 4406,
      "Ġcaus": 4407,
      "Ġinit": 4408,
      "Ġpower": 4409,
      "à¤°à¤ķà¤¤": 4410,
      "oll": 4411,
      "Ġà¤ĳà¤ķ": 4412,
      "Ġà²ĵà²°": 4413,
      "ĠChurch": 4414,
      "Ġamong": 4415,
      "Ġcommon": 4416,
      "Ġhimself": 4417,
      "Ġrelease": 4418,
      "ves": 4419,
      "vision": 4420,
      "Ã¸": 4421,
      "à²¨à²Ł": 4422,
      "à¤ķà¤ħà¤ª": 4423,
      "à²®à²°à²£": 4424,
      "Ġà²¨à²ķà²²": 4425,
      "à²ªà²ķà²µ": 4426,
      "à²·à²Ĺ": 4427,
      "à²§à²ķà²°": 4428,
      "à²¶à²®": 4429,
      "anch": 4430,
      "iting": 4431,
      "Ġfac": 4432,
      "ili": 4433,
      "à²°à²®à²£": 4434,
      "ĠBatt": 4435,
      "Ġelect": 4436,
      "Ġwithout": 4437,
      "cept": 4438,
      "Ġà¤®à¤¨à¤®": 4439,
      "Ġà¤ľà¤²à¤µ": 4440,
      "Ġjoin": 4441,
      "Ġorigin": 4442,
      "Ġversion": 4443,
      "Ġcareer": 4444,
      "fic": 4445,
      "Ġà¤ķà¤µà¤°": 4446,
      "Ġà¤ªà¤£": 4447,
      "à²®à²ªà²¤": 4448,
      "Ġà²Ĩà²ĺ": 4449,
      "Ġà¤ķà¤°à¤£": 4450,
      "Ġfar": 4451,
      "Ġmembers": 4452,
      "Ġlow": 4453,
      "ĠBar": 4454,
      "à²²à²ķà²¨": 4455,
      "ota": 4456,
      "ĠRiver": 4457,
      "ĠFeb": 4458,
      "à²¯à²®à²Ĺà²³à²¨": 4459,
      "à¤ħà¤Ĺà¤°": 4460,
      "à¤īà¤¦": 4461,
      "ĠWest": 4462,
      "Ġà¤°à¤ĸà¤ķà¤°": 4463,
      "Ġà¤Ŀà¤Łà¤ķ": 4464,
      "77": 4465,
      "SS": 4466,
      "mb": 4467,
      "sp": 4468,
      "yr": 4469,
      "à¤¾;": 4470,
      "à²µà²¯à²µ": 4471,
      "à²¬à²µà²¨": 4472,
      "Ġsold": 4473,
      "ese": 4474,
      "astern": 4475,
      "Ġhaving": 4476,
      "ĠCent": 4477,
      "ĠRep": 4478,
      "à²ħà²°": 4479,
      "Ġà¤ĳà¤°": 4480,
      "Ġà¤¬à¤¦à¤®": 4481,
      "Ġà¤ĳà¤«à¤°": 4482,
      "Ġà²Ĩà²«à²°": 4483,
      "Ġà²ĭà²¤": 4484,
      "MS": 4485,
      "of": 4486,
      "ring": 4487,
      "Ġer": 4488,
      "Ġide": 4489,
      "à²¸à²µà²¦": 4490,
      "à¤¶à¤¸": 4491,
      "à²§à²ªà²¡": 4492,
      "ona": 4493,
      "à¤Īà¤µ": 4494,
      "reet": 4495,
      "à²Ńà²°à²£": 4496,
      "Ġwest": 4497,
      "ena": 4498,
      "à¤ĩà¤ª": 4499,
      "à¤ĩà¤¬à¤°": 4500,
      "Ġà¤Łà¤ķ": 4501,
      "ĠMag": 4502,
      "à¤Łà¤°à¤µ": 4503,
      "ĠPet": 4504,
      "Ġconf": 4505,
      "Ġ800": 4506,
      "à²§à²¨à²ķ": 4507,
      "Ġseen": 4508,
      "Ġà¥§à¥«": 4509,
      "ront": 4510,
      "Ġdays": 4511,
      "Ġreturned": 4512,
      "augh": 4513,
      "ration": 4514,
      "Ø±": 4515,
      "à²¦à²ķà²°": 4516,
      "Ġà²ħà²°à²µ": 4517,
      "Ġà²ħà²°à²¸": 4518,
      "Ġà²°à²¹à²¸": 4519,
      "Ġà²¦à²¸à²°": 4520,
      "à²Ńà²Ĺà²³à²²": 4521,
      "Ġsite": 4522,
      "Ġword": 4523,
      "ĠPort": 4524,
      "Ġà²®à²¹à²¦": 4525,
      "Ġà²¸à²¹à²ľ": 4526,
      "à²²à²¸à²Ĺà²³": 4527,
      "Ġprop": 4528,
      "ffic": 4529,
      "à²Īà²Ĺ": 4530,
      "ize": 4531,
      "à¤ıà¤¨à¤¯": 4532,
      "à²īà²¤": 4533,
      "Ġsurv": 4534,
      "ĠBlack": 4535,
      "Ġcontinued": 4536,
      "à²Ķ": 4537,
      "à¥ĩ'": 4538,
      "à¥ĩà¤ĥ": 4539,
      "à¤¯à¤Ń": 4540,
      "à¥Ī-": 4541,
      "à²®à²³": 4542,
      "Ġtri": 4543,
      "Ġtropical": 4544,
      "Ġà¤ĸà¤Ł": 4545,
      "Ġfore": 4546,
      "Ġfind": 4547,
      "Ġà¤Łà¤¨": 4548,
      "Ġà¤ħà¤¨à¤¨": 4549,
      "à¤ķà¤¤à¤°": 4550,
      "à²¯à²µà²²": 4551,
      "à¤Ĩà¤ªà¤ķ": 4552,
      "Ġà¤¬à¤¨à¤µ": 4553,
      "à²ľà²¨à²ķ": 4554,
      "ago": 4555,
      "Ġ120": 4556,
      "ĠUp": 4557,
      "ourn": 4558,
      "angu": 4559,
      "Ġcontrol": 4560,
      "Ġcompany": 4561,
      "Ġresult": 4562,
      "Ġnever": 4563,
      "à³§à³¯": 4564,
      "Ġ370": 4565,
      "Ġhistor": 4566,
      "Ġlatest": 4567,
      ");": 4568,
      "33": 4569,
      "à¥Ģ\"": 4570,
      "à²¸à²Ĺà²³": 4571,
      "Ġà¤ªà¤¥": 4572,
      "à²·à²¯à²¦": 4573,
      "Ġà¤Ĺà¤¹à¤²": 4574,
      "Ġà¤Ńà¤°à¤¤": 4575,
      "Ġà²Īà²µà²°": 4576,
      "à²ĸà²¦à²²": 4577,
      "ĠSl": 4578,
      "ĠApp": 4579,
      "ĠCup": 4580,
      "à²°à²®à²¨": 4581,
      "ĠMed": 4582,
      "ĠPal": 4583,
      "Ġgave": 4584,
      "Ġstand": 4585,
      "ogn": 4586,
      "Ġ185": 4587,
      "Ġà¤¸à¤¤à¤¹": 4588,
      "ĠAlthough": 4589,
      "ruary": 4590,
      "Ġrelations": 4591,
      "Ġà²®à²łà²¦": 4592,
      "Ġcritic": 4593,
      "70": 4594,
      "AA": 4595,
      "Ġu": 4596,
      "ĠÅĭ": 4597,
      "à²°à²ªà²¤": 4598,
      "à²¦à²ª": 4599,
      "Ġà¤°à¤ĺ": 4600,
      "à¤ıà¤Ĩà¤Ī": 4601,
      "Ġà²¤à²µà²°": 4602,
      "Ġpat": 4603,
      "Ġhow": 4604,
      "ille": 4605,
      "Ġlost": 4606,
      "urg": 4607,
      "ĠBro": 4608,
      "irc": 4609,
      "idence": 4610,
      "Ġgiven": 4611,
      "aya": 4612,
      "ression": 4613,
      "ĠBrig": 4614,
      "Ġchildren": 4615,
      "ĠFebruary": 4616,
      "500": 4617,
      "kn": 4618,
      "nà²¨": 4619,
      "Ġà¤ķà¤·": 4620,
      "Ġà²ªà²µà²°": 4621,
      "Ġà¤°à¤ļ": 4622,
      "Ġà²µà²¶à²ªà²¡": 4623,
      "alth": 4624,
      "Ġinf": 4625,
      "à²¤à²°à²ķ": 4626,
      "ĠAcc": 4627,
      "Ġà²ħà²µà²®": 4628,
      "Ġà¤Ĳà¤²": 4629,
      "ĠRoman": 4630,
      "Ġvs": 4631,
      "aga": 4632,
      "rab": 4633,
      "raft": 4634,
      "aining": 4635,
      "à²°à²¹à²£": 4636,
      "Ġà²Ĳà²ķ": 4637,
      "Ġdeb": 4638,
      "Ġsports": 4639,
      "ief": 4640,
      "ĠYou": 4641,
      "ressed": 4642,
      "rent": 4643,
      "ensive": 4644,
      "Ġdoes": 4645,
      "Ġà²Ĩà²µà²°à²£à²¦à²²": 4646,
      "Ġeduc": 4647,
      "Ġstrong": 4648,
      "Ġcapt": 4649,
      "Ġmilitary": 4650,
      "Ġsuggest": 4651,
      "tal": 4652,
      "ye": 4653,
      "za": 4654,
      "Ġà¤ķà¤¤": 4655,
      "à²Ĺà²ľ": 4656,
      "à¤ķà¤¦à¤®": 4657,
      "à¤¹à¤Ł": 4658,
      "Ġà¤®à¤°à¤¨": 4659,
      "Ġà²¨à²µà²¦": 4660,
      "Ġà¤¦à¤«": 4661,
      "à²¬à²¦à²²": 4662,
      "Ġà²µà²²à²¯": 4663,
      "Ġtro": 4664,
      "onom": 4665,
      "Ġwat": 4666,
      "Ġwant": 4667,
      "Ġfire": 4668,
      "Ġfull": 4669,
      "à²¤à²°à²²": 4670,
      "à²¯à²¨à²¨": 4671,
      "roy": 4672,
      "Ġà¤ĺà¤¨": 4673,
      "Ġà¤ĺà¤¡": 4674,
      "olly": 4675,
      "Ġvill": 4676,
      "Ġstated": 4677,
      "ĠOld": 4678,
      "Ġà¤Ĩà¤Īà¤¸": 4679,
      "Ġà²¸à²¤à²¤": 4680,
      "Ġwritten": 4681,
      "www": 4682,
      "Ġà¤ĸà¤¤à¤°à¤¨": 4683,
      "Ġpopulation": 4684,
      "Ġcountry": 4685,
      "Éĵe": 4686,
      "\":": 4687,
      "à¤¤à¤ķà¤°": 4688,
      "Ġà²¬à²¸à²µ": 4689,
      "Ġà¤µà¤ľ": 4690,
      "à²¦à²°à²µ": 4691,
      "Ġà¤Ķà¤¸à¤¤": 4692,
      "Ġsomet": 4693,
      "Ġà²¶à²¶": 4694,
      "Ġà²¶à²¤à²ķ": 4695,
      "Ġà²Ńà²°à²¤": 4696,
      "ĠAut": 4697,
      "à¤Ĩà¤ª": 4698,
      "Ġeight": 4699,
      "à²²à²ķà²µ": 4700,
      "à¤ħà¤®": 4701,
      "avel": 4702,
      "ument": 4703,
      "ounc": 4704,
      "Ġà¥¨à¥¦": 4705,
      "à¤¨à¤µà¤°": 4706,
      "à¤ªà¤Łà¤¨": 4707,
      "à¤ľà¤¦": 4708,
      "Ġter": 4709,
      "Ġà¤Ĺà¤¢": 4710,
      "Ġà²¦à²¯": 4711,
      "ened": 4712,
      "Ġcor": 4713,
      "Ġpra": 4714,
      "Ġà¤Łà¤ķà¤°": 4715,
      "ĠSec": 4716,
      "urity": 4717,
      "à²Ĺà²²à²ķ": 4718,
      "Ġgood": 4719,
      "Ġ53": 4720,
      "ĠJapan": 4721,
      "Ġproduced": 4722,
      "Ġà¥§à¥¨": 4723,
      "Ġplayers": 4724,
      "ency": 4725,
      "Ġpolitics": 4726,
      "ĠAustralia": 4727,
      "de": 4728,
      "oor": 4729,
      "Ġq": 4730,
      "à¤¯à¤Łà¤ķ": 4731,
      "à²Łà²µà²°": 4732,
      "Ġà²ħà²«": 4733,
      "à³ĭ.": 4734,
      "Ġtra": 4735,
      "à¤¶à¤¦": 4736,
      "à¤ıà¤µ": 4737,
      "à²ľà²¯à²¨": 4738,
      "à²Ńà²°": 4739,
      "ising": 4740,
      "Ġtoget": 4741,
      "Ġreview": 4742,
      "Ġà¤Ľà¤ł": 4743,
      "à²²à²¦à²µà²°": 4744,
      "Ġ41": 4745,
      "à²łà²µ": 4746,
      "Ġva": 4747,
      "Ġstat": 4748,
      "Ġbeh": 4749,
      "aker": 4750,
      "à²ħà²®": 4751,
      "Ġ99": 4752,
      "ĠAmerica": 4753,
      "Ġtogether": 4754,
      "SC": 4755,
      "field": 4756,
      "oid": 4757,
      "à²µà²¡": 4758,
      "Ġà¤ħà¤ĺ": 4759,
      "Ġà¤ıà¤Ł": 4760,
      "Ġwind": 4761,
      "itive": 4762,
      "Ġmm": 4763,
      "ĠTV": 4764,
      "Ġà¤Ĩà¤ªà¤¤": 4765,
      "ĠCo": 4766,
      "Ġlim": 4767,
      "ĠPark": 4768,
      "aying": 4769,
      "ements": 4770,
      "Ġà²ķà²²à²¬": 4771,
      "ĠJack": 4772,
      "Ġ2001": 4773,
      "Ġord": 4774,
      "Ġà¤Ŀà¤Ĺà¤¡": 4775,
      "Ġà²ħà²¸à²¹": 4776,
      "Ġdefe": 4777,
      "Ġopin": 4778,
      "Ġstarted": 4779,
      ".\"": 4780,
      "BC": 4781,
      "nà²¬": 4782,
      "à¯": 4783,
      "Ġx": 4784,
      "Ġec": 4785,
      "à²³à²¦à²²": 4786,
      "à¤ľà¤¶": 4787,
      "Ġà¤¤à¤ª": 4788,
      "à²µà²°à²¦": 4789,
      "Ġà¤¶à¤®": 4790,
      "Ġà²ľà²¡": 4791,
      "à²¥à²¦à²²": 4792,
      "ites": 4793,
      "Ġche": 4794,
      "Ġcivil": 4795,
      "Ġfre": 4796,
      "à²İà²°à²¡": 4797,
      "Ġà²ħà²µà²¤": 4798,
      "ĠNe": 4799,
      "à²Ńà²µà²µ": 4800,
      "à²°à²¹à²µ": 4801,
      "à¤Ĩà¤Īà¤ı": 4802,
      "sequ": 4803,
      "Ġà¤ıà¤¨à¤¡": 4804,
      "ĠUniversity": 4805,
      "Ġà²Ķà²Ł": 4806,
      "inning": 4807,
      "Ġmatch": 4808,
      "Ġposition": 4809,
      "Ġproduction": 4810,
      "Ã¼": 4811,
      "Ð°": 4812,
      "Ġib": 4813,
      "à³į?": 4814,
      "à²¦à²¸": 4815,
      "à²³à²¤": 4816,
      "Ġà²¸à²ķà²²": 4817,
      "Ġti": 4818,
      "à²·à²ª": 4819,
      "à¤£à¤®": 4820,
      "Ġsum": 4821,
      "Ġcy": 4822,
      "Ġcover": 4823,
      "ality": 4824,
      "Ġà²¯à²ľà²®": 4825,
      "Ġma": 4826,
      "ĠCount": 4827,
      "Ġà²Łà²°": 4828,
      "ĠIre": 4829,
      "à¤ªà¤°à¤µ": 4830,
      "Ġ54": 4831,
      "otion": 4832,
      "à²Ĺà²¦à²µà²°": 4833,
      "à¤¾à¤ģ,": 4834,
      "ĠGl": 4835,
      "Ġà¤ĳà¤ªà¤°": 4836,
      "Ġplan": 4837,
      "à¤Ĩà¤Īà¤Ĩà¤°": 4838,
      "Ġlevel": 4839,
      "ĠPolicy": 4840,
      "Ġà²ļà²³à²µà²³": 4841,
      "Ġbreaking": 4842,
      "Ġpoint": 4843,
      "nà²¸": 4844,
      "Ġà¤·": 4845,
      "à²¯à²ªà²Ł": 4846,
      "à²¸à²ª": 4847,
      "à²Łà²ª": 4848,
      "Ġtre": 4849,
      "Ġà¤Ĩà¤Ĺà¤°": 4850,
      "Ġsk": 4851,
      "Ġsw": 4852,
      "à²µà²¨à²ķ": 4853,
      "Ġfail": 4854,
      "Ġfriend": 4855,
      "Ġhapp": 4856,
      "lear": 4857,
      "Ġà¤Ľà¤ķ": 4858,
      "à¤°à¤¦à¤¸": 4859,
      "à²ľà²¨à²Ĺà²°": 4860,
      "ĠThese": 4861,
      "à²·à²£à²Ĺà²³à²¨": 4862,
      "ĠGet": 4863,
      "Ġstruct": 4864,
      "aves": 4865,
      "osaur": 4866,
      "aba": 4867,
      "Ġareas": 4868,
      "Ġ06": 4869,
      "à²Ĳà²Ł": 4870,
      "Ġà²ķà²£à²ķ": 4871,
      "Ġcompet": 4872,
      "Ġtele": 4873,
      "Ġnovel": 4874,
      "Ġimportant": 4875,
      "ĠDavid": 4876,
      "32": 4877,
      "che": 4878,
      "oh": 4879,
      "Ġ00": 4880,
      "à³Ĩ\\": 4881,
      "à²µà²ķà²¨": 4882,
      "Ġà²®à²°à²¦": 4883,
      "à¥ģ-": 4884,
      "à²Łà²¸": 4885,
      "Ġà¤ľà¤ľ": 4886,
      "Ġà¤Ĺà¤¦": 4887,
      "à¤¼à¥Ī": 4888,
      "aruj": 4889,
      "ither": 4890,
      "Ġcur": 4891,
      "Ġcast": 4892,
      "à²ĸà²µà²¨": 4893,
      "à¥ī)": 4894,
      "eli": 4895,
      "à²¤à²¨à²ķ": 4896,
      "Ġgl": 4897,
      "Ġforce": 4898,
      "Ġforces": 4899,
      "Ġà¤¬à¤¤à¤²": 4900,
      "à¤ħà¤Ń": 4901,
      "Ġ66": 4902,
      "Ġ600": 4903,
      "à²¶à²¨à²ķ": 4904,
      "Ġchurch": 4905,
      "à²°à²ķà²°à²£à²ķ": 4906,
      "Ġà²Ĵà²³à²ªà²¡": 4907,
      "nt": 4908,
      "Ðµ": 4909,
      "Ġident": 4910,
      "à²¤à²Ĺà²³à²¨": 4911,
      "Ġà²¸à²ĸ": 4912,
      "à³Ĩ...": 4913,
      "Ġà¤Ĺà¤µà¤°": 4914,
      "à¤¼à¥ĩà¥¤": 4915,
      "alk": 4916,
      "Ġfun": 4917,
      "Ġbusiness": 4918,
      "Ġhowever": 4919,
      "ĠTo": 4920,
      "Ġà¤®à¤¹à¤ľ": 4921,
      "Ġ59": 4922,
      "Ġcomb": 4923,
      "Ġà¤ħà¤ªà¤®": 4924,
      "Ġmeet": 4925,
      "Ġà¤ĭà¤¤": 4926,
      "Ġknow": 4927,
      "á¹Ł": 4928,
      "á¸¡": 4929,
      "St": 4930,
      "nà²®": 4931,
      "ner": 4932,
      "ning": 4933,
      "à¤¾à¥ħ": 4934,
      "à²°à²¬à²°": 4935,
      "à²Ĺà²°à²¦": 4936,
      "à¤ķà¤¹": 4937,
      "à¤¯à¤Łà¤¨": 4938,
      "à²£à²Ĺà²³à²¨": 4939,
      "Ġten": 4940,
      "à¤§à¤ª": 4941,
      "à²µà²°à²Ĺà²³": 4942,
      "ones": 4943,
      "à¥Īà¥¤\"": 4944,
      "Ġmaking": 4945,
      "Ġà¤ķà¤¹à¤²": 4946,
      "Ġdiv": 4947,
      "ĠAir": 4948,
      "ĠCr": 4949,
      "ĠMich": 4950,
      "Ġ2002": 4951,
      "Ġsee": 4952,
      "ending": 4953,
      "ource": 4954,
      "uck": 4955,
      "embly": 4956,
      "Ġdevelopment": 4957,
      "Ġparticular": 4958,
      "ĠIreland": 4959,
      "arujala": 4960,
      "most": 4961,
      "ying": 4962,
      "à²Ĺà²Ń": 4963,
      "à¤¸à¤ľ": 4964,
      "à²¡à²¸": 4965,
      "à²®à²¡": 4966,
      "here": 4967,
      "Ġap": 4968,
      "Ġà¤Ńà¤¤": 4969,
      "à¤¼à¤¾,": 4970,
      "Ġwomen": 4971,
      "arter": 4972,
      "Ġmid": 4973,
      "ĠTown": 4974,
      "Ġà²ħà²¨à²¨": 4975,
      "Ġà²«à²²à²µ": 4976,
      "Ġà²ıà²ľ": 4977,
      "una": 4978,
      "Ġà¤¬à¤¹à¤¸": 4979,
      "Ġà¤ľà¤¨à¤ªà¤¦": 4980,
      "ump": 4981,
      "ests": 4982,
      "Ġconv": 4983,
      "Ġant": 4984,
      "Ġà¤Ĩà¤ľà¤ķà¤²": 4985,
      "Ġà²īà²ªà²ķ": 4986,
      "à¤ıà¤®à¤¸": 4987,
      "à²·à²¨à²°": 4988,
      "ĠâĢĻ": 4989,
      "à²°à²³à²¦": 4990,
      "Ġlet": 4991,
      "Ġintro": 4992,
      "Ġneed": 4993,
      "Ġevents": 4994,
      "à¤Ĳà¤¸": 4995,
      "Ġtaken": 4996,
      "ĠMovies": 4997,
      "34": 4998,
      "AN": 4999,
      "AR": 5000,
      "AS": 5001,
      "DI": 5002,
      "nà²ķ": 5003,
      "Ñģ": 5004,
      "à¤°à¤ļà¤²": 5005,
      "à¤ķà¤²à¤¤": 5006,
      "à¤¯à¤°à¤®": 5007,
      "Ġà¤®à¤®à¤¤": 5008,
      "Ġà²®à²¯": 5009,
      "à¤Ĺà¤ķà¤°": 5010,
      "Ġà¤¬à¤Ł": 5011,
      "Ġà¤¬à¤°à¤¤": 5012,
      "Ġà¤°à¤£à¤µ": 5013,
      "Ġà²¤à²¦": 5014,
      "Ġà²İà²¬": 5015,
      "à²¶à²¸": 5016,
      "à²¶à²¨à²µ": 5017,
      "ator": 5018,
      "Ġtotal": 5019,
      "à¤Ľà¤¡": 5020,
      "ĠSw": 5021,
      "Ġnort": 5022,
      "ĠCro": 5023,
      "stit": 5024,
      "Ġgen": 5025,
      "ager": 5026,
      "Ġ72": 5027,
      "Ġà³®": 5028,
      "aint": 5029,
      "Ġà²ıà²¨à²¨": 5030,
      "à¤Ĩà¤Īà¤¸": 5031,
      "elling": 5032,
      "thern": 5033,
      "Ġusing": 5034,
      "erved": 5035,
      "Ġà¤ħà¤«à¤¸à¤°": 5036,
      "Ġamarujala": 5037,
      "Ġinclude": 5038,
      "Ġsett": 5039,
      "Ġconcern": 5040,
      "Ġtradition": 5041,
      "ĠGroup": 5042,
      "ollywood": 5043,
      "JP": 5044,
      "Ãº": 5045,
      "Ä±": 5046,
      "à¦": 5047,
      "à²Ĺà²·": 5048,
      "à²Ĺà²ªà²¡": 5049,
      "Ġà¤¹à¤¦": 5050,
      "Ġà²µà²²à²¯à²¦à²²": 5051,
      "à¥ĭà¤Ĥà¥¤": 5052,
      "Ġà²Ĩà²ªà²°": 5053,
      "Ġà²ĩà²¡à²²": 5054,
      "à³ģ...": 5055,
      "à¤¼à¥Ģ,": 5056,
      "Ġsou": 5057,
      "Ġfact": 5058,
      "à²¤à²°à²µà²¨": 5059,
      "Ġà¥¤'": 5060,
      "Ġhour": 5061,
      "Ġà²¸à²®à²¯à²¦": 5062,
      "ams": 5063,
      "ĠMod": 5064,
      "Ġequ": 5065,
      "ĠDr": 5066,
      "ĠDon": 5067,
      "ĠEar": 5068,
      "akes": 5069,
      "à²²à²¸à²µ": 5070,
      "Ġà¤ĳà¤ª": 5071,
      "epend": 5072,
      "ampions": 5073,
      "Ġprim": 5074,
      "Ġwriting": 5075,
      "Ġdiffic": 5076,
      "Ġinflu": 5077,
      "Ġdifficult": 5078,
      "eared": 5079,
      "pted": 5080,
      "ÙĪ": 5081,
      "à¤°à¤ķà¤°à¤£": 5082,
      "à²Łà²¬": 5083,
      "Ġà²µà²²à²¯à²¦": 5084,
      "Ġà¤Ĩà¤«": 5085,
      "à¤ļà¤®": 5086,
      "à¤¼à¥Ģà¥¤": 5087,
      "Ġà²īà²·": 5088,
      "Ġfelt": 5089,
      "Ġbody": 5090,
      "Ġtour": 5091,
      "Ġà¤Łà¤°": 5092,
      "ĠSy": 5093,
      "ament": 5094,
      "utes": 5095,
      "Ġà¤ľà¤¬à¤°à¤¦à¤¸": 5096,
      "agi": 5097,
      "Ġ76": 5098,
      "rie": 5099,
      "ĠKa": 5100,
      "à²°à²¹à²¦": 5101,
      "Ġrad": 5102,
      "Ġseven": 5103,
      "à²Ĳà²İ": 5104,
      "à²īà²¡": 5105,
      "Ġdeveloped": 5106,
      "Ġhelp": 5107,
      "Ġhuman": 5108,
      "Ġrelationship": 5109,
      "75": 5110,
      "78": 5111,
      "iec": 5112,
      "ki": 5113,
      "à³ģ\\": 5114,
      "Ġà¤¸à¤¦à¤°": 5115,
      "à¥Ī'": 5116,
      "Ġà²¸à²¡": 5117,
      "à²Ĺà²³à²·": 5118,
      "Ġà¤Ĩà¤®à¤¤": 5119,
      "Ġà¤Ķà¤°à¤¤": 5120,
      "Ġà¤ļà¤ª": 5121,
      "reg": 5122,
      "à²Ńà²¯": 5123,
      "à²¥à²µà²°": 5124,
      "ales": 5125,
      "Ġft": 5126,
      "Ġfather": 5127,
      "Ġfoot": 5128,
      "Ġbird": 5129,
      "ases": 5130,
      "roll": 5131,
      "ĠSup": 5132,
      "omm": 5133,
      "adu": 5134,
      "à²¤à²¨à²µ": 5135,
      "ĠHar": 5136,
      "Ġà¤ĵà¤®": 5137,
      "Ġ79": 5138,
      "Ġanim": 5139,
      "à²ħà²§": 5140,
      "Ġrecogn": 5141,
      "ĠAng": 5142,
      "Ġà¤ıà¤¡à¤®": 5143,
      "Ġinvol": 5144,
      "Ġfinished": 5145,
      "--------": 5146,
      "ĠRoyal": 5147,
      "AT": 5148,
      "less": 5149,
      "à²°à²¬à²²": 5150,
      "à¤¨à¤Ĺ": 5151,
      "à²ªà²Ĺà²³à²¨": 5152,
      "Ġtimes": 5153,
      "à²·à²Ń": 5154,
      "Ġà¤¤à¤¦": 5155,
      "Ġà²¦à²¯à²µ": 5156,
      "Ġpress": 5157,
      "Ġdied": 5158,
      "à³Ĩ,\"": 5159,
      "Ġhouse": 5160,
      "omob": 5161,
      "Ġà²¸à²°à²³à²µ": 5162,
      "imately": 5163,
      "à¤Ŀà¤¸": 5164,
      "uma": 5165,
      "Ġà¤ĵà¤ªà¤¨": 5166,
      "Ġà²ĺà²Łà²ķà²¦": 5167,
      "Ġà²īà²ªà²ļ": 5168,
      "play": 5169,
      "reek": 5170,
      "Ġworks": 5171,
      "Ġrelated": 5172,
      "Ġremained": 5173,
      "ĠIsra": 5174,
      "Ġprovide": 5175,
      "Ġmiles": 5176,
      "Ġships": 5177,
      "des": 5178,
      "à²°à²¥": 5179,
      "à²¦à²¹": 5180,
      "à²¨à²ªà²¦": 5181,
      "à¤¿à¥¤": 5182,
      "à¤¨à¤¶": 5183,
      "à²¸à²¦à²°": 5184,
      "Ġà²¸à²¦à²°": 5185,
      "à²Łà²£à²¦à²²": 5186,
      "Ġà²ħà²¥": 5187,
      "Ġà¤¬à¤¸à¤ª": 5188,
      "à³ĭ?": 5189,
      "à²·à²Ĺà²³à²¨": 5190,
      "à²§à²Ĺ": 5191,
      "Ġà¤¶à¤ªà¤¥": 5192,
      "Ġsi": 5193,
      "orse": 5194,
      "à¤ĩà¤ľà¤°": 5195,
      "ĠMon": 5196,
      "à¤ªà¤°à¤¸": 5197,
      "Ġà²§à²°à²£": 5198,
      "abor": 5199,
      "Ġà²īà²ªà²µ": 5200,
      "Ġà¤ªà¤¦à¤ķ": 5201,
      "ĠRead": 5202,
      "ĠGrand": 5203,
      "ael": 5204,
      "da": 5205,
      "mail": 5206,
      "à²¤à²ķà²°": 5207,
      "Ġà²¨à²Ĺà²¦": 5208,
      "Ġà¤ľà¤¸": 5209,
      "Ġà¤°à¤«": 5210,
      "à¤¡à¤ķà¤°": 5211,
      "à¤§à¤¶": 5212,
      "Ġà²Ĵà²¦": 5213,
      "alion": 5214,
      "Ġbar": 5215,
      "Ġborn": 5216,
      "à²¯à²¨à²µà²°": 5217,
      "Ġtoo": 5218,
      "Ġà²ħà²¨à²°": 5219,
      "ĠSO": 5220,
      "amon": 5221,
      "ĠPre": 5222,
      "à²·à²£à²¦à²²": 5223,
      "Ġisland": 5224,
      "Ġ85": 5225,
      "antic": 5226,
      "claim": 5227,
      "Ġjob": 5228,
      "Ġmove": 5229,
      "ittle": 5230,
      "Ġthought": 5231,
      "Ġbroad": 5232,
      "ĠWilliam": 5233,
      "ĠAccording": 5234,
      "ground": 5235,
      "Ã¢": 5236,
      "áĥ": 5237,
      "à²¾|": 5238,
      "à²Ĺà²¨à²µ": 5239,
      "à²Ĥ-": 5240,
      "à¤¯à¤Ł": 5241,
      "à²¸à²¹": 5242,
      "Ġà²¨à²³": 5243,
      "Ġà¤ľà¤Ł": 5244,
      "Ġà¤ħà¤µà¤¤": 5245,
      "à²¹à²¶": 5246,
      "Ġà²°à²£": 5247,
      "Ġà²ľà²Ĺà²³": 5248,
      "Ġwent": 5249,
      "ora": 5250,
      "Ġcat": 5251,
      "Ġà²Ńà²¤": 5252,
      "Ġà²Ńà²Ĺ": 5253,
      "aly": 5254,
      "ĠSong": 5255,
      "Ġreached": 5256,
      "Ġlaw": 5257,
      "Ġloss": 5258,
      "ĠBank": 5259,
      "Ġ58": 5260,
      "à²łà²°": 5261,
      "unk": 5262,
      "Ġstyle": 5263,
      "Ġstaff": 5264,
      "ems": 5265,
      "ĠJames": 5266,
      "Ġà²Ĳà²¨": 5267,
      "Ġà¥§à¥ª": 5268,
      "rict": 5269,
      "Ġà³§à³¨": 5270,
      "Ġentire": 5271,
      "ĠAtl": 5272,
      "ĠIII": 5273,
      "ĠWhile": 5274,
      "Ġvoice": 5275,
      "Ġcommunity": 5276,
      "à²Ķà²Ł": 5277,
      "ĠAutomob": 5278,
      "ĠAutomobiles": 5279,
      "48": 5280,
      "The": 5281,
      "mas": 5282,
      "ule": 5283,
      "à²¨à²¯à²¦": 5284,
      "à²¨à²¬à²¹": 5285,
      "Ġà¤®à¤Ľà¤²": 5286,
      "Ġà¤ªà¤µà¤¨": 5287,
      "Ġà²ķà²¡à²²": 5288,
      "à¤¦à¤ª": 5289,
      "à¤Ĺà¤ł": 5290,
      "Ġà¤¬à¤Ĺ": 5291,
      "à²¹à²Ĺà²³": 5292,
      "à²ļà²²à²¨": 5293,
      "Ġaway": 5294,
      "Ġà¤¤à¤¹": 5295,
      "à³Īà²ĥ": 5296,
      "Ġour": 5297,
      "Ġfr": 5298,
      "asi": 5299,
      "à²¿.\\": 5300,
      "Ġà²«à²°": 5301,
      "Ġà²«à²²à²ķ": 5302,
      "ĠNet": 5303,
      "ĠLond": 5304,
      "Ġ62": 5305,
      "Ġ67": 5306,
      "isted": 5307,
      "Ġ95": 5308,
      "Ġ08": 5309,
      "ization": 5310,
      "à¤ıà¤¨à¤ľ": 5311,
      "Ġvarious": 5312,
      "Ġsignific": 5313,
      "Ġsuccessful": 5314,
      "BI": 5315,
      "br": 5316,
      "gov": 5317,
      "la": 5318,
      "nà²ª": 5319,
      "ores": 5320,
      "à²³à²µà²¨": 5321,
      "Ġà²¨à²µà²°": 5322,
      "Ġà¤¨à¤¨": 5323,
      "à²¬à²¡": 5324,
      "Ġà¤²à¤ķà¤¡": 5325,
      "à¤¶à¤¬": 5326,
      "Ġà²Ĩà²Łà²¦": 5327,
      "Ġà²İà²°": 5328,
      "Ġà²°à²¥": 5329,
      "oni": 5330,
      "à¤Īà¤ľ": 5331,
      "oring": 5332,
      "Ġball": 5333,
      "Ġoffer": 5334,
      "Ġhig": 5335,
      "irit": 5336,
      "ĠHel": 5337,
      "ĠDay": 5338,
      "à²·à²£à²µà²¨": 5339,
      "ĠFirst": 5340,
      "à¤Łà¤¨à¤°": 5341,
      "Ġ73": 5342,
      "à¤¦à¤¨à¤¶": 5343,
      "à²¸à²¬à²²": 5344,
      "aper": 5345,
      "Ġproject": 5346,
      "artment": 5347,
      "Ġà¥§à¥Ń": 5348,
      "Ġà¤®à¤¤à¤Ń": 5349,
      "obier": 5350,
      "à²¢à²µ": 5351,
      "Ġmean": 5352,
      "à¥§à¥¦": 5353,
      "Ġgrow": 5354,
      "à²ıà²ķ": 5355,
      "ĠIsland": 5356,
      "Ġconstruction": 5357,
      "Ġprogram": 5358,
      "CT": 5359,
      "ba": 5360,
      "iy": 5361,
      "Ġà¤ķà¤¦": 5362,
      "à¤ķà¤¬": 5363,
      "à²¸à²°à²¦": 5364,
      "Ġà¤¬à¤ĸ": 5365,
      "ination": 5366,
      "à¤¼-": 5367,
      "Ġà¤ªà¤°à¤«": 5368,
      "Ġà¤ĸà¤£": 5369,
      "asing": 5370,
      "Ġmun": 5371,
      "Ġha": 5372,
      "leet": 5373,
      "ĠMa": 5374,
      "aces": 5375,
      "ola": 5376,
      "ety": 5377,
      "à²ľà²¨à²°": 5378,
      "ĠRoad": 5379,
      "ĠFeder": 5380,
      "à²Łà²ķà²ķ": 5381,
      "ĠOp": 5382,
      "Ġà¤¬à¤ļà¤¤": 5383,
      "Ġà²ĵà²²": 5384,
      "Ġà¤ķà¤²à¤°": 5385,
      "à²Ĩà²Ĺ": 5386,
      "ounted": 5387,
      "Ġscored": 5388,
      "Ġacross": 5389,
      "Ġassoci": 5390,
      "duct": 5391,
      "Ġthroughout": 5392,
      "Ġactiv": 5393,
      "Ġfeatures": 5394,
      "ĠMusic": 5395,
      "ĠLondon": 5396,
      "In": 5397,
      "aign": 5398,
      "nà²Ī": 5399,
      "à²²à²ªà²¤": 5400,
      "à²¤à²ľ": 5401,
      "à¤¸à¤ªà¤°": 5402,
      "Ġà²¤à²£": 5403,
      "Ġast": 5404,
      "Ġà²ĩà²ķ": 5405,
      "Ġsound": 5406,
      "alt": 5407,
      "ĠSer": 5408,
      "ĠSom": 5409,
      "Ġà²¸à²®à²¤": 5410,
      "Ġà²¸à²®à²¯à²µà²¨": 5411,
      "Ġlight": 5412,
      "Ġà¤Ľà¤µ": 5413,
      "à¤°à¤®à¤¶": 5414,
      "irth": 5415,
      "iment": 5416,
      "ĠHigh": 5417,
      "Ġà²¨à²®à²¸": 5418,
      "umar": 5419,
      "Ġà¤¸à¤¹à¤ķ": 5420,
      "Ġ74": 5421,
      "à²¯à²µà²°à²¨": 5422,
      "Ġ09": 5423,
      "Ġage": 5424,
      "oung": 5425,
      "aha": 5426,
      "Ġformed": 5427,
      "Ġcreated": 5428,
      "ĠPlay": 5429,
      "Ġdetail": 5430,
      "Ġeffect": 5431,
      "Ġeducation": 5432,
      "ouncil": 5433,
      "31": 5434,
      "bu": 5435,
      "à²¿\\": 5436,
      "à²²à²ª": 5437,
      "à¤¸à¤¹": 5438,
      "à¥Ī\"": 5439,
      "à²Łà²³": 5440,
      "Ġà¤¦à¤¤": 5441,
      "Ġà²µà²²": 5442,
      "Ġà²¤à²¡à²µ": 5443,
      "Ġaud": 5444,
      "Ġà¤Ĺà¤ľ": 5445,
      "à³Ī.": 5446,
      "à²Ńà²Ĺà²³": 5447,
      "Ġ1000": 5448,
      "Ġà¤¸à¤®à¤¨": 5449,
      "eler": 5450,
      "Ġlook": 5451,
      "ĠMy": 5452,
      "ĠMad": 5453,
      "ĠBer": 5454,
      "à²®à²¨à²µ": 5455,
      "Ġstri": 5456,
      "odes": 5457,
      "Ġcond": 5458,
      "Ġconn": 5459,
      "rap": 5460,
      "hern": 5461,
      "Ġà²İà²¸à²Ĺ": 5462,
      "Ġ180": 5463,
      "à²¦à²µà²°à²¨": 5464,
      "earch": 5465,
      "Ġà²ªà²¦à²Ĺà²³": 5466,
      "Ġà¤¸à¤«à¤°": 5467,
      "à¤ıà¤¨à¤ıà¤¸": 5468,
      "Ġà¤Ĺà¤£à¤¨": 5469,
      "ship": 5470,
      "Ġfeet": 5471,
      "engal": 5472,
      "Ġmodern": 5473,
      "Ġbuilding": 5474,
      "Ind": 5475,
      "Sh": 5476,
      "eam": 5477,
      "rish": 5478,
      "à¤¿'": 5479,
      "à¤ªà¤µ": 5480,
      "Ġà²ħà²°à²®à²¨": 5481,
      "Ġà¤ľà¤¬à¤°": 5482,
      "à²·à²ķà²¨": 5483,
      "Ġà¤Ĺà¤µ": 5484,
      "à¤¼à¥Ĥ": 5485,
      "Ġà¤ļà¤Ł": 5486,
      "Ġson": 5487,
      "Ġwid": 5488,
      "Ġà¤¥à¤°": 5489,
      "Ġpri": 5490,
      "à²ĸà²ķà²°": 5491,
      "Ġmiss": 5492,
      "Ġhurricane": 5493,
      "Ġà²²à²Ĺ": 5494,
      "à²°à²£à²¦à²²": 5495,
      "amm": 5496,
      "Ġà²Łà²¨": 5497,
      "à²¤à²¨à²¨": 5498,
      "ĠBill": 5499,
      "ĠPaul": 5500,
      "à²®à²¨à²Ĺà²°": 5501,
      "Ġà²ħà²²à²°": 5502,
      "ĠGold": 5503,
      "ults": 5504,
      "Ġcondom": 5505,
      "Ġà¤ĵà¤¡": 5506,
      "Ġ84": 5507,
      "Ġprofess": 5508,
      "Ġdev": 5509,
      "Ġ110": 5510,
      "Ġarm": 5511,
      "Ġà²ħà²µà²³à²¨": 5512,
      "Ġcentral": 5513,
      "à³§à³¦": 5514,
      "Ġadded": 5515,
      "Ġcharacters": 5516,
      "Ġelements": 5517,
      "Ġofficial": 5518,
      "ĠEurope": 5519,
      "Ġoriginally": 5520,
      ",\"": 5521,
      "100": 5522,
      "ges": 5523,
      "oz": 5524,
      "uf": 5525,
      "à²µà²¦à²°": 5526,
      "à¤¸à¤«": 5527,
      "à²¡à²Ĺà²³à²¨": 5528,
      "Ġà²®à²ķà²°": 5529,
      "à²Ĺà²³à²µà²°": 5530,
      "à¤ļà¤°à¤£": 5531,
      "ream": 5532,
      "Ġà¤¥à¤ķ": 5533,
      "à¤ĩà¤ı": 5534,
      "à¤ĩà¤µà¤°": 5535,
      "Ġreach": 5536,
      "Ġà¤§à¤°à¤¨": 5537,
      "acu": 5538,
      "ura": 5539,
      "eth": 5540,
      "à¤ĥ-": 5541,
      "Ġvoc": 5542,
      "ĠLove": 5543,
      "ander": 5544,
      "ription": 5545,
      "ude": 5546,
      "Ġ05": 5547,
      "ĠChap": 5548,
      "ellow": 5549,
      "Ġ130": 5550,
      "à²Ľà²¤": 5551,
      "à²¢à²ªà²Ł": 5552,
      "Ġspecial": 5553,
      "Ġperformed": 5554,
      "Ġpersonal": 5555,
      "Ġà²¸à²ĸà²¤": 5556,
      "board": 5557,
      "hy": 5558,
      "à²¦à²¦à²²": 5559,
      "à²¦à²Ĺà²³à²¨": 5560,
      "à¥ĭ'": 5561,
      "Ġà¤¨à¤Ĺ": 5562,
      "Ġà¤²à¤²": 5563,
      "à¤Īà¤ĵ": 5564,
      "Ġà¤ıà¤¨à¤¸": 5565,
      "Ġà¤ĸà¤¨à¤¨": 5566,
      "Ġfif": 5567,
      "Ġfront": 5568,
      "Ġà¤¨à¤¹à¤°": 5569,
      "à²°à²¦à²µà²°": 5570,
      "Ġnet": 5571,
      "ĠPres": 5572,
      "iri": 5573,
      "Ġà¤Ĳà¤¶": 5574,
      "ĠHist": 5575,
      "à²ľà²¨à²µ": 5576,
      "Ġà²¬à²³à²¸à²¬à²¹": 5577,
      "à²¯à²®à²¦à²²": 5578,
      "Ġ63": 5579,
      "Ġà¤ľà¤¨à¤ľ": 5580,
      "Ġkeep": 5581,
      "aps": 5582,
      "Ġà²ĵà²ªà²¨": 5583,
      "oke": 5584,
      "Ġà²ĩà²µà²°à²¨": 5585,
      "Ġ1990": 5586,
      "ixed": 5587,
      "ĠIndian": 5588,
      "Ġ1980": 5589,
      "Ġpeak": 5590,
      "Ġmoney": 5591,
      "Ġregion": 5592,
      "Ġà¤¨à¤ľà¤¦": 5593,
      "Ġblack": 5594,
      "ĠFrance": 5595,
      "Ġcompleted": 5596,
      "medi": 5597,
      "Ġarchae": 5598,
      "mitted": 5599,
      "Ġdestroy": 5600,
      ",,": 5601,
      "pa": 5602,
      "à¥ĭ)": 5603,
      "à¤ķà¤Ī": 5604,
      "à²¹à²¨à²¦": 5605,
      "à²ľà²Ĺà²³": 5606,
      "Ġà¤Ĺà¤®": 5607,
      "Ġà¤ĩà¤¬": 5608,
      "à²µà²°à²µ": 5609,
      "atural": 5610,
      "à¤ĩà¤°": 5611,
      "Ġhar": 5612,
      "Ġà¤§à¤°à¤¤": 5613,
      "à²¸à²°à²Ĺ": 5614,
      "ĠHen": 5615,
      "à²°à²¸à²¨": 5616,
      "Ġvict": 5617,
      "ĠWhe": 5618,
      "Ġ61": 5619,
      "Ġ68": 5620,
      "Ġ69": 5621,
      "vert": 5622,
      "Ġko": 5623,
      "à²ħà²ķ": 5624,
      "Ġà²īà²ªà²¦": 5625,
      "ĠVir": 5626,
      "ounced": 5627,
      "Ġupon": 5628,
      "azine": 5629,
      "uki": 5630,
      "enced": 5631,
      "Ġrespect": 5632,
      "Ġà²¦à²¶à²ķà²Ĺà²³": 5633,
      "ĠEuropean": 5634,
      "Ġattempt": 5635,
      "Ġguns": 5636,
      "ĠSingh": 5637,
      "Ġmonths": 5638,
      "amonae": 5639,
      "47": 5640,
      "eg": 5641,
      "kan": 5642,
      "lier": 5643,
      "rup": 5644,
      "zer": 5645,
      "ÅŁ": 5646,
      "à²Ĺà²®à²¦": 5647,
      "à²ķà²³à²²": 5648,
      "à²®à²ľ": 5649,
      "à¤µà¤¤à¤¨": 5650,
      "Ġà¤¬à¤ľà¤°": 5651,
      "à¤Łà¤ª": 5652,
      "à²¬à²Ĺ": 5653,
      "Ġà²µà²²à²¸": 5654,
      "Ġà²Ĩà²®à²¦": 5655,
      "à²¦à²°à²¨": 5656,
      "à²µà²°à²ª": 5657,
      "Ġà²Ĺà²£à²¨": 5658,
      "à¤ĸà¤¡": 5659,
      "à¤Ńà¤¦": 5660,
      "Ġwife": 5661,
      "Ġcase": 5662,
      "Ġbaj": 5663,
      "à²°à²¤à²®": 5664,
      "Ġhy": 5665,
      "ĠTwo": 5666,
      "ĠCard": 5667,
      "ĠCong": 5668,
      "ĠBut": 5669,
      "ids": 5670,
      "Ġà²ķà²°à²Ĺ": 5671,
      "à²ĺà²Ĺà²³": 5672,
      "Ġ77": 5673,
      "à²ħà²¤": 5674,
      "à²Ńà²µà²¦": 5675,
      "Ġà¤ĳà¤¡": 5676,
      "à²Ĩà²¦": 5677,
      "Ġ96": 5678,
      "Ġprob": 5679,
      "Ġrange": 5680,
      "Ġà²ħà²¡à²Ĺ": 5681,
      "à²°à²ķà²°à²£à²µà²¨": 5682,
      "à¤Ĩà¤Īà¤Ł": 5683,
      "à¤¯à¤²à¤Ł": 5684,
      "Ġà¤īà¤łà¤¤": 5685,
      "Ġ1998": 5686,
      "Ġfollowed": 5687,
      "ĠKingdom": 5688,
      "ĠCounty": 5689,
      "gin": 5690,
      "ique": 5691,
      "pts": 5692,
      "à²ĭ": 5693,
      "à²µà²ķà²µ": 5694,
      "Ġà¤ªà¤ł": 5695,
      "Ġà²ªà²µà²¨": 5696,
      "Ġtim": 5697,
      "Ġà²Ĩà²³à²µ": 5698,
      "Ġaction": 5699,
      "à²µà²°à²²": 5700,
      "Ġà²°à²ĺ": 5701,
      "à²¥à²ķ": 5702,
      "à²¥à²Ĺà²³à²¨": 5703,
      "atin": 5704,
      "Ġà²ļà²¹": 5705,
      "Ġput": 5706,
      "Ġà²ħà²µà²°à²¦": 5707,
      "icated": 5708,
      "Ġà¤ķà¤¹à¤ķà¤°": 5709,
      "à²¿...": 5710,
      "à¤łà¤Ń": 5711,
      "uri": 5712,
      "à¤¶à¤¨à¤ķ": 5713,
      "ĠDios": 5714,
      "Ġà²§à²ķ": 5715,
      "à¤µà¤¸à¤¨": 5716,
      "à²²à²¸à²¦à²²": 5717,
      "Ġ83": 5718,
      "istan": 5719,
      "Ġà²ĵà²¦à²²": 5720,
      "Ġà²īà²ªà²ķà²°à²£": 5721,
      "Ġrank": 5722,
      "Ġ125": 5723,
      "Ġà¤Ĩà¤Īà¤ľ": 5724,
      "ociet": 5725,
      "quad": 5726,
      "Ġ188": 5727,
      "ĠVal": 5728,
      "Ġspirit": 5729,
      "Ġà¤ıà¤¸à¤¡": 5730,
      "Ġ1996": 5731,
      "ways": 5732,
      "Ġdecl": 5733,
      "Ġà²ľà²²à²ª": 5734,
      "êŀĮa": 5735,
      "Ġweeks": 5736,
      "ĠBrigade": 5737,
      "Ġtelevision": 5738,
      "ao": 5739,
      "uel": 5740,
      "wh": 5741,
      "Ġà²£": 5742,
      "à²°à²¤à²°": 5743,
      "à¤°à¤ł": 5744,
      "à²¡à²ª": 5745,
      "Ġà²¸à²«": 5746,
      "à²Łà²¤": 5747,
      "à²ªà²¬": 5748,
      "Ġà²¬à²¯": 5749,
      "Ġà¤Ķà¤¦": 5750,
      "Ġà¤ªà¤°à¤¤": 5751,
      "Ġà¤¯à¤ķ": 5752,
      "Ġà²¦à²³": 5753,
      "Ġà¤¶à¤°à¤£": 5754,
      "Ġà²Ĺà²Ĺ": 5755,
      "Ġcut": 5756,
      "Ġmother": 5757,
      "Ġhon": 5758,
      "ĠTimes": 5759,
      "Ġà²¸à²®à²¯à²ķ": 5760,
      "ĠHP": 5761,
      "used": 5762,
      "Ġà¤īà¤ªà¤ľ": 5763,
      "ĠRober": 5764,
      "à¤¼à¥ĩ,": 5765,
      "ĠWil": 5766,
      "Ġà²īà²¦à²¯": 5767,
      "à²°à²¨à²¨": 5768,
      "Ġà²¬à²²à²Ĺ": 5769,
      "à²£à²¨à²µà²°": 5770,
      "Ġevidence": 5771,
      "Ġà¤Ĺà¤£à¤¤": 5772,
      "Ġà³¨à³¦à³¦": 5773,
      "rought": 5774,
      "Ġquarter": 5775,
      "à²ıà²¨": 5776,
      "Ġserved": 5777,
      "Ġgenerally": 5778,
      "Ġdiscover": 5779,
      "Ġsignificant": 5780,
      "36": 5781,
      "gmail": 5782,
      "ji": 5783,
      "ris": 5784,
      "to": 5785,
      "à¥Ģ!": 5786,
      "à²Ĺà²Ĺ": 5787,
      "Ġà¤¸à¤ķà¤²": 5788,
      "à¤¹à¤ľ": 5789,
      "Ġà²ķà²µà²¨": 5790,
      "Ġà²¨à²Łà²°": 5791,
      "Ġà²¹à²¡à²Ĺ": 5792,
      "à²¶à²¤": 5793,
      "Ġà²¦à²Ł": 5794,
      "Ġà¤ļà¤°à¤®": 5795,
      "reed": 5796,
      "ania": 5797,
      "Ġcop": 5798,
      "Ġfig": 5799,
      "Ġpit": 5800,
      "Ġmater": 5801,
      "ico": 5802,
      "Ġhost": 5803,
      "Ġlangu": 5804,
      "ĠIm": 5805,
      "ĠBel": 5806,
      "Ġeither": 5807,
      "Ġgold": 5808,
      "ivid": 5809,
      "Ġ),": 5810,
      "uti": 5811,
      "ĠDis": 5812,
      "Ġà²¬à²°à²¬à²¹": 5813,
      "Ġvol": 5814,
      "ully": 5815,
      "à¤īà¤¨à¤²": 5816,
      "osition": 5817,
      "Ġà²ĺà²Ł": 5818,
      "ĠKhan": 5819,
      "ogy": 5820,
      "Ġà²¤à²ªà²¸": 5821,
      "Ġ01": 5822,
      "clus": 5823,
      "merc": 5824,
      "Ġà²¨à²Ĺà²°à²¸à²Ń": 5825,
      "à²¬à²³à²ķ": 5826,
      "ssai": 5827,
      "Ġà³¨à³¦": 5828,
      "Ġ1970": 5829,
      "Ġà¤ıà¤¡à¤µ": 5830,
      "Ġflood": 5831,
      "Ġà¤ıà¤«à¤Ĩà¤Īà¤Ĩà¤°": 5832,
      "Ġpolitical": 5833,
      "ĠWales": 5834,
      "ĠCompany": 5835,
      "ampionship": 5836,
      "à¤§à¤¶à¤¤à¤ķ": 5837,
      "//": 5838,
      "513": 5839,
      "band": 5840,
      "for": 5841,
      "zy": 5842,
      "Ġri": 5843,
      "à²¦à²¯à²¦": 5844,
      "à²Ĺà²¶": 5845,
      "à¤ķà¤ķ": 5846,
      "à¤¸à¤Ń": 5847,
      "à²¸à²³": 5848,
      "Ġà¤ľà¤¶": 5849,
      "Ġà¤µà¤¡": 5850,
      "à²¬à²µà²°": 5851,
      "Ġà¤²à¤ĺ": 5852,
      "Ġà²¤à²¹à²¶": 5853,
      "Ġà²Ĩà²¡à²²": 5854,
      "Ġak": 5855,
      "Ġach": 5856,
      "à²§à²Ĺà²³à²¨": 5857,
      "à³ģ.\"": 5858,
      "Ġsaw": 5859,
      "eds": 5860,
      "arap": 5861,
      "à¤°à¤¤à¤®": 5862,
      "ica": 5863,
      "à¤łà¤¤": 5864,
      "Ġnon": 5865,
      "à²ĥ-": 5866,
      "Ġlaun": 5867,
      "ĠMark": 5868,
      "ĠBharati": 5869,
      "ecut": 5870,
      "uth": 5871,
      "Ġvai": 5872,
      "ĠFssai": 5873,
      "Ġà¤Ĩà¤¦à¤¤": 5874,
      "Ġ78": 5875,
      "Ġà³¯": 5876,
      "ĠKB": 5877,
      "Ġproduc": 5878,
      "Ġprocess": 5879,
      "ateg": 5880,
      "à¤ıà¤¸à¤¸": 5881,
      "Ġyour": 5882,
      "Ġà¤¬à¤¦à¤²à¤¤": 5883,
      "Ġclose": 5884,
      "Ġappeared": 5885,
      "Ġbecom": 5886,
      "Ġà³§à³«": 5887,
      "Ġviol": 5888,
      "artha": 5889,
      "Ġà¤ıà¤«à¤ıà¤¸à¤ıà¤¸": 5890,
      "Ġemploy": 5891,
      "Ġservice": 5892,
      "Ġà²ĺà²Łà²ķà²Ĺà²³": 5893,
      "Ġpoor": 5894,
      "Ġoccur": 5895,
      "Ġopened": 5896,
      "Ġchanges": 5897,
      "ĠIPL": 5898,
      "Ġà¤ıà¤«à¤ıà¤¸à¤ıà¤¸à¤ıà¤Ĩà¤Ī": 5899,
      "38": 5900,
      "book": 5901,
      "cast": 5902,
      "dja": 5903,
      "go": 5904,
      "lo": 5905,
      "lan": 5906,
      "ni": 5907,
      "rat": 5908,
      "zi": 5909,
      "à¤¿à¤¼": 5910,
      "à¤¯à¤°à¤¤": 5911,
      "à²¸à²Ń": 5912,
      "à¤¹à¤µ": 5913,
      "Ġà²®à²®à²¤": 5914,
      "Ġà²¹à²Ĺà²²": 5915,
      "Ġà²¬à²°à²¦": 5916,
      "à²·à²°à²¤": 5917,
      "Ġà²Ĩà²Łà²µ": 5918,
      "Ġà¤īà¤Ĺ": 5919,
      "à¤§à¤®": 5920,
      "Ġà¤ĩà¤ķà¤Ł": 5921,
      "erous": 5922,
      "Ġsocial": 5923,
      "aries": 5924,
      "Ġcities": 5925,
      "Ġmach": 5926,
      "icles": 5927,
      "à¤ĩà¤Ĺà¤°": 5928,
      "ĠSm": 5929,
      "ĠSome": 5930,
      "ĠCook": 5931,
      "ida": 5932,
      "Ġground": 5933,
      "Ġà¤īà¤ªà¤®": 5934,
      "à²Ĺà²°à²¨": 5935,
      "ĠGreat": 5936,
      "Ġalmost": 5937,
      "Ġà²ķà²³à²ª": 5938,
      "Ġwhom": 5939,
      "à²¤à²¹à²¦": 5940,
      "Ġproper": 5941,
      "Ġable": 5942,
      "Ġothers": 5943,
      "Ġà²Ĩà²¤à²¨à²¨": 5944,
      "Ġrelig": 5945,
      "ĠArmy": 5946,
      "ĠSports": 5947,
      "lected": 5948,
      "Ġcrew": 5949,
      "Ġcaused": 5950,
      "55": 5951,
      "IN": 5952,
      "Øª": 5953,
      "à¤¨à¤ľà¤°": 5954,
      "à²ķà²¬à²³": 5955,
      "à²®à²°à²¸": 5956,
      "à²Łà²Ĺà²³à²¨": 5957,
      "Ġà¤µà¤¶": 5958,
      "à¤ļà¤¸": 5959,
      "à¤¥à¤Ĺ": 5960,
      "Ġà²ľà²Ĺà²¨": 5961,
      "Ġwa": 5962,
      "Ġà²Īà²ľ": 5963,
      "Ġà²Ĵà²£à²Ĺ": 5964,
      "Ġpur": 5965,
      "à¤Ĩà¤°à¤ª": 5966,
      "Ġà¤ĺà¤Łà¤ķ": 5967,
      "ĠCap": 5968,
      "Ġlik": 5969,
      "Ġlink": 5970,
      "à²¤à²¨à²µà²¨": 5971,
      "ĠHD": 5972,
      "Ġà¤īà¤ªà¤µ": 5973,
      "Ġà²ħà²°à²³": 5974,
      "ĠForm": 5975,
      "emy": 5976,
      "ĠWW": 5977,
      "à¤¯à¤¨à¤¶": 5978,
      "Ġ86": 5979,
      "istic": 5980,
      "à²¨à²¡à²ķ": 5981,
      "ifa": 5982,
      "Ġà²ĵà²Ł": 5983,
      "Ġà²Ĳà²¦à²¨": 5984,
      "Ġ98": 5985,
      "à¤ıà¤¸à¤ıà¤«": 5986,
      "antry": 5987,
      "Ġchart": 5988,
      "Ġ04": 5989,
      "Ġà¤¬à¤°à¤ķà¤°": 5990,
      "Ġabove": 5991,
      "Ġroute": 5992,
      "anna": 5993,
      "Ġenc": 5994,
      "Ġà³§à³®": 5995,
      "ributed": 5996,
      "Ġrail": 5997,
      "Ġdecided": 5998,
      "veer": 5999,
      "ĠScient": 6000,
      "Ġcoll": 6001,
      "Ġà¤ħà¤ĸà¤¬": 6002,
      "Ġprovided": 6003,
      "Ġavail": 6004,
      "adesh": 6005,
      "Ġopinions": 6006,
      ".)": 6007,
      "95": 6008,
      "AM": 6009,
      "Karnataka": 6010,
      "cent": 6011,
      "jects": 6012,
      "à¥į,": 6013,
      "à²¯à²Ĺà²¤": 6014,
      "à¤ľà¤«": 6015,
      "à²¬à²¦à²µà²°": 6016,
      "head": 6017,
      "Ġaward": 6018,
      "à³ģ..": 6019,
      "Ġà¤ªà¤°à¤µ": 6020,
      "Ġà²¦à²°à²¦à²²": 6021,
      "à¤ĸà¤£": 6022,
      "aran": 6023,
      "Ġcreat": 6024,
      "Ġà²īà²ľ": 6025,
      "Ġpred": 6026,
      "Ġmember": 6027,
      "à¤ĩà¤¡à¤°": 6028,
      "ĠTay": 6029,
      "Ġà¤Ĩà¤ªà¤¦": 6030,
      "omp": 6031,
      "olo": 6032,
      "ete": 6033,
      "ĠPart": 6034,
      "à²ľà²¨à²Ĺà²³": 6035,
      "ĠRich": 6036,
      "ema": 6037,
      "Ġà²Ĩà²¦à²·": 6038,
      "Ġà²ĺà²°": 6039,
      "à²ħà²µà²¨": 6040,
      "Ġà¤ĳà¤²": 6041,
      "apo": 6042,
      "Ġà²Ĳà²¶": 6043,
      "ĠVartha": 6044,
      "Ġexc": 6045,
      "ĠStreet": 6046,
      "Ġjourn": 6047,
      "à¥Ĥà¤ģ,": 6048,
      "Ġweak": 6049,
      "ought": 6050,
      "Ġneg": 6051,
      "Ġpract": 6052,
      "Ġcritics": 6053,
      "Ġimpro": 6054,
      "ĠAfrica": 6055,
      "://": 6056,
      "aut": 6057,
      "ford": 6058,
      "ray": 6059,
      "ÑĤ": 6060,
      "à³į),": 6061,
      "à²¾(": 6062,
      "à¤¤à¤¦": 6063,
      "à²³à²µà²°": 6064,
      "Ġà¤®à¤¥": 6065,
      "Ġà²µà²¦": 6066,
      "Ġà¤¶à¤¶": 6067,
      "atter": 6068,
      "Ġà²Īà²¸": 6069,
      "Ġà²®à²¤à²Ĺà²³": 6070,
      "Ġcirc": 6071,
      "Ġpers": 6072,
      "Ġmer": 6073,
      "Ġnational": 6074,
      "ĠCour": 6075,
      "Ġrev": 6076,
      "oma": 6077,
      "ĠMe": 6078,
      "à²¯à²¦à²µà²°": 6079,
      "ĠRan": 6080,
      "Ġfort": 6081,
      "à¤īà¤¡à¤°": 6082,
      "Ġ700": 6083,
      "ript": 6084,
      "ĠOl": 6085,
      "à²Ĩà²ķ": 6086,
      "à²ĩà²¡": 6087,
      "Ġsepar": 6088,
      "ĠUK": 6089,
      "ĠVill": 6090,
      "à²¥à²³à²¦": 6091,
      "Ġà¤ķà¤ªà¤²": 6092,
      "à²Ĳà²¸": 6093,
      "pped": 6094,
      "Ġà¤¨à¤µà¤®": 6095,
      "Ġreserv": 6096,
      "Ġappoin": 6097,
      "Ġ1995": 6098,
      "Ġpolice": 6099,
      "Ġinvest": 6100,
      "Ġdirected": 6101,
      "Ġperformance": 6102,
      "ĠQu": 6103,
      "ĠHero": 6104,
      "Ġdamage": 6105,
      "Ġdraw": 6106,
      "Ġtroops": 6107,
      "ID": 6108,
      "TI": 6109,
      "ked": 6110,
      "men": 6111,
      "tr": 6112,
      "à¤¾!": 6113,
      "à³Ĩ(": 6114,
      "à²¤à²¡à²¦": 6115,
      "à²Ĺà²®à²¨": 6116,
      "Ġà¤¸à¤¤à¤°": 6117,
      "à¤ªà¤¹": 6118,
      "Ġà¤¨à¤°à¤ķ": 6119,
      "Ġà²µà²¯": 6120,
      "à¤¶à¤Ńà¤°": 6121,
      "iny": 6122,
      "Ġà¤Ĺà¤°à¤®": 6123,
      "à¤Īà¤¡": 6124,
      "Ġog": 6125,
      "Ġà¤°à¤¹à¤¸": 6126,
      "iti": 6127,
      "Ġpen": 6128,
      "Ġà¤¸à¤®à¤Ĺ": 6129,
      "Ġtowards": 6130,
      "à²°à²¤à²µà²¨": 6131,
      "oud": 6132,
      "ĠBra": 6133,
      "Ġonce": 6134,
      "ĠLa": 6135,
      "ĠJos": 6136,
      "à²ķà²°à²£à²ķ": 6137,
      "à²ĩà²¦à²°": 6138,
      "Ġproble": 6139,
      "Ġà¤īà¤¦à¤¯": 6140,
      "à²¦à²µà²°à²²": 6141,
      "à¤ıà¤®à¤ıà¤ķ": 6142,
      "à¤Ĩà¤Īà¤ª": 6143,
      "à²µà²¹à²¨": 6144,
      "ounter": 6145,
      "Ġrock": 6146,
      "anya": 6147,
      "igned": 6148,
      "à²®à²£à²°": 6149,
      "ĠArt": 6150,
      "Ġquick": 6151,
      "duction": 6152,
      "Ġannounced": 6153,
      "Ġallowed": 6154,
      "Ġcampaign": 6155,
      "Ġbattle": 6156,
      "Ġreplaced": 6157,
      "ography": 6158,
      "ĠMinister": 6159,
      "ĠGeorge": 6160,
      "Ġterrit": 6161,
      "Ġhappen": 6162,
      "engaluru": 6163,
      "NA": 6164,
      "sel": 6165,
      "Ã³": 6166,
      "à¤¿)": 6167,
      "à²²à²Ĺà²³à²¨": 6168,
      "à¤¤à¤¬": 6169,
      "à²ķà²Ĺ": 6170,
      "à¤¸à¤ıà¤¨à¤¯": 6171,
      "à¤²à¤ĸà¤¨à¤Ĭ": 6172,
      "à¤®à¤ļà¤¨": 6173,
      "à¤Ĺà¤¯": 6174,
      "Ġà¤¬à¤¦à¤¨": 6175,
      "Ġà¤ħà¤®à¤²": 6176,
      "à²¬à²°à²¦": 6177,
      "Ġà¤²à¤Łà¤ķ": 6178,
      "à²·à²®à²¤": 6179,
      "à²ļà²³à²µ": 6180,
      "Ġà¤¤à¤µ": 6181,
      "Ġà¤¯à¤¤": 6182,
      "Ġà²Ĺà²¦à²Ĺ": 6183,
      "Ġcross": 6184,
      "Ġfav": 6185,
      "à²¤à²°à²Ĺà²³": 6186,
      "Ġpal": 6187,
      "asa": 6188,
      "ĠTw": 6189,
      "ĠServ": 6190,
      "ĠAp": 6191,
      "Ġà¤ªà¤¹à¤¨à¤¨": 6192,
      "à¤Ĩà¤°à¤¸": 6193,
      "Ġnor": 6194,
      "Ġred": 6195,
      "Ġà¤¬à¤¨à¤°": 6196,
      "str": 6197,
      "Ġà²®à²¨à²¦": 6198,
      "ecess": 6199,
      "ivi": 6200,
      "Ġ1950": 6201,
      "Ġà¤īà¤ªà¤ķ": 6202,
      "ĠDel": 6203,
      "à²¯à²®à²µ": 6204,
      "ulf": 6205,
      "Ġà¤ħà¤²à¤°": 6206,
      "Ġconvers": 6207,
      "Ġà²¹à²£à²µ": 6208,
      "udd": 6209,
      "à²§à²¨à²°": 6210,
      "Ġà¤ħà¤¤à¤ıà¤µ": 6211,
      "ĠVideo": 6212,
      "ĠStar": 6213,
      "Ġ160": 6214,
      "Ġclos": 6215,
      "ruit": 6216,
      "à³§à³¨": 6217,
      "Ġdirector": 6218,
      "Ġengine": 6219,
      "Ġsouthern": 6220,
      "Ġavailable": 6221,
      "!!": 6222,
      "CB": 6223,
      "FC": 6224,
      "IP": 6225,
      "craft": 6226,
      "hand": 6227,
      "now": 6228,
      "val": 6229,
      "Ã§": 6230,
      "Ġill": 6231,
      "à²¦à²¡": 6232,
      "à²¨à²¹": 6233,
      "Ġà²ķà²Ľ": 6234,
      "à¤Ĺà¤°à¤£": 6235,
      "Ġà²ªà²¨": 6236,
      "Ġà¤ħà¤Łà¤²": 6237,
      "à²¬à²²à²¦": 6238,
      "Ġtrain": 6239,
      "hest": 6240,
      "à²ļà²¯à²µ": 6241,
      "à²§à²¨à²Ĺà²³": 6242,
      "Ġà¤ĩà¤¸à¤¨": 6243,
      "Ġà²Ĵà²£": 6244,
      "Ġfem": 6245,
      "Ġà²¯à²¥": 6246,
      "Ġdou": 6247,
      "Ġà²²à²ļ": 6248,
      "Ġà¤Ĩà¤ªà¤°": 6249,
      "ĠCal": 6250,
      "ĠMont": 6251,
      "Ġ350": 6252,
      "ĠBest": 6253,
      "ett": 6254,
      "otel": 6255,
      "Ġ:-": 6256,
      "ulu": 6257,
      "ĠEm": 6258,
      "Ġwhose": 6259,
      "à²²à²¸à²Ĺà²³à²¨": 6260,
      "Ġkey": 6261,
      "ĠOm": 6262,
      "à²°à²¹à²Ĺà²³": 6263,
      "Ġsequ": 6264,
      "anta": 6265,
      "à²µà²¸à²¤": 6266,
      "aily": 6267,
      "Ġ1992": 6268,
      "Ġmeas": 6269,
      "ĠArch": 6270,
      "Ġearlier": 6271,
      "Ġindepend": 6272,
      "ĠZeal": 6273,
      "Ġfourth": 6274,
      "ĠTrans": 6275,
      "Ġobject": 6276,
      "Ġrequest": 6277,
      "ĠPhil": 6278,
      "ĠAssoci": 6279,
      "ĠPresident": 6280,
      "ociety": 6281,
      "('": 6282,
      "SE": 6283,
      "eum": 6284,
      "fall": 6285,
      "iber": 6286,
      "ned": 6287,
      "off": 6288,
      "ror": 6289,
      "à²°à²ĸ": 6290,
      "à¥ĩ;": 6291,
      "à¤¤à¤Ĺ": 6292,
      "à²¸à²¤à²ķ": 6293,
      "à²Łà²ªà²Ł": 6294,
      "à³Ĩ.\"": 6295,
      "à¤ıà¤ª": 6296,
      "à²ļà²°à²µ": 6297,
      "Ġà²İà²¡à²Ĺ": 6298,
      "à²ľà²Ĺ": 6299,
      "Ġà¤Ĺà¤¹à¤¨": 6300,
      "à²§à²¨à²µ": 6301,
      "Ġsitu": 6302,
      "à²µà²¨à²¨": 6303,
      "Ġà²Īà²ļ": 6304,
      "Ġcost": 6305,
      "Ġà²¯à²¦": 6306,
      "Ġbill": 6307,
      "asion": 6308,
      "Ġmention": 6309,
      "ĠSan": 6310,
      "ilities": 6311,
      "ĠMary": 6312,
      "Ġà²¸à²°à²¸": 6313,
      "ĠIts": 6314,
      "Ġeastern": 6315,
      "ĠPe": 6316,
      "ĠPix": 6317,
      "Ġà¤ªà¤¹à¤²à¤µ": 6318,
      "à¤ħà¤¸": 6319,
      "ĠEr": 6320,
      "Ġà¤¸à¤¹à¤¸": 6321,
      "Ġà¤¸à¤¹à¤ľ": 6322,
      "Ġwhite": 6323,
      "odies": 6324,
      "abel": 6325,
      "Ġcommerc": 6326,
      "Ġ186": 6327,
      "à²¥à²³à²Ĺà²³": 6328,
      "Ġ07": 6329,
      "Ġleast": 6330,
      "à²¹à²¨à²Ĺà²³à²¨": 6331,
      "ĠUnion": 6332,
      "à¥§à¥ª": 6333,
      "à¥§à¥«": 6334,
      "Ġsubsequ": 6335,
      "Ġlargest": 6336,
      "iction": 6337,
      "Ġgoal": 6338,
      "Ġlocated": 6339,
      "Ġinsp": 6340,
      "Ġinstead": 6341,
      "Ġkilled": 6342,
      "ĠRepublic": 6343,
      "Ġmaterial": 6344,
      "ĠZealand": 6345,
      "'m": 6346,
      "An": 6347,
      "bwe": 6348,
      "bdes": 6349,
      "gian": 6350,
      "vbwe": 6351,
      "Ùĥ": 6352,
      "à¥Ģ/": 6353,
      "à¤²à¤«": 6354,
      "Ġà¤ªà¤¬": 6355,
      "Ġà¤¨à¤ķà¤²": 6356,
      "à³Ĭ,": 6357,
      "Ġts": 6358,
      "à²¹à²²à²ķ": 6359,
      "Ġà²¤à²¸": 6360,
      "à²ļà²Ĺ": 6361,
      "à¤ļà¤¤à¤®": 6362,
      "à²§à²®": 6363,
      "Ġsil": 6364,
      "Ġà²¶à²°à²¤": 6365,
      "aro": 6366,
      "arch": 6367,
      "Ġà¤ĸà¤²": 6368,
      "Ġcell": 6369,
      "Ġà²īà²Ńà²¯": 6370,
      "nder": 6371,
      "Ġinternational": 6372,
      "à²ĸà²¨à²¦à²²": 6373,
      "Ġmu": 6374,
      "Ġmass": 6375,
      "Ġden": 6376,
      "ĠTech": 6377,
      "ential": 6378,
      "ĠCond": 6379,
      "ĠMor": 6380,
      "Ġthreat": 6381,
      "Ġà¥¦": 6382,
      "ivacy": 6383,
      "imi": 6384,
      "à¤°à¤¹à¤®": 6385,
      "uture": 6386,
      "ĠDobier": 6387,
      "Ġà¤Ĩà¤°à¤Ł": 6388,
      "aven": 6389,
      "ĠEast": 6390,
      "Ġà¤ªà¤¤à¤²": 6391,
      "Ġconduct": 6392,
      "Ġà¤¸à¤°à¤ª": 6393,
      "à²ĩà²µ": 6394,
      "Ġ94": 6395,
      "à¤ıà¤¸à¤Ł": 6396,
      "à²°à²ķà²°à²£à²Ĺà²³à²²": 6397,
      "199": 6398,
      "Ġindivid": 6399,
      "Ġsupp": 6400,
      "Ġassist": 6401,
      "uality": 6402,
      "Ġgoing": 6403,
      "Ġgoals": 6404,
      "Ġhighway": 6405,
      "Ġà²¶à²°à²£à²°": 6406,
      "Ġleading": 6407,
      "ĠGuitar": 6408,
      "Ġturned": 6409,
      "Ġcurrent": 6410,
      "ĠAtlantic": 6411,
      "ĠWheeler": 6412,
      "Ġachie": 6413,
      "ĠPixel": 6414,
      "bdesk": 6415,
      "vbwebdesk": 6416,
      "bor": 6417,
      "nel": 6418,
      "Ð½": 6419,
      "Ġ}": 6420,
      "à²®à²ł": 6421,
      "Ġà²Ĩà²Ńà²°à²£": 6422,
      "Ġaver": 6423,
      "à²ľà²ķà²°": 6424,
      "Ġà²¦à²ª": 6425,
      "Ġà²Ĺà²ľ": 6426,
      "à²Ńà²ľà²¨": 6427,
      "Ġà²Ĵà²¨": 6428,
      "Ġfa": 6429,
      "Ġbrought": 6430,
      "Ġpil": 6431,
      "Ġtold": 6432,
      "ĠTom": 6433,
      "ĠTod": 6434,
      "Ġnight": 6435,
      "Ġà¤²à¤Ĺà¤µ": 6436,
      "ste": 6437,
      "ĠBay": 6438,
      "irl": 6439,
      "Ġgod": 6440,
      "oto": 6441,
      "owl": 6442,
      "Ġval": 6443,
      "ĠFollow": 6444,
      "Ġheavy": 6445,
      "à²²à²¸à²®": 6446,
      "rian": 6447,
      "abi": 6448,
      "Ġprote": 6449,
      "à¤°à¤¶à¤¸": 6450,
      "Ġ02": 6451,
      "elled": 6452,
      "Ġà¥§à¥©": 6453,
      "Ġcontr": 6454,
      "Ġround": 6455,
      "à²·à²ķà²°à²¨": 6456,
      "Ġappl": 6457,
      "Ġà³§à³©": 6458,
      "Ġamin": 6459,
      "Ġworked": 6460,
      "Ġà²·à²°à²¤": 6461,
      "Ġinterest": 6462,
      "Ġregard": 6463,
      "Ġgeneral": 6464,
      "ĠAssembly": 6465,
      "ĠJesÃº": 6466,
      "ĠMichael": 6467,
      "ĠEarly": 6468,
      "39": 6469,
      "300": 6470,
      "ho": 6471,
      "liam": 6472,
      "rd": 6473,
      "uv": 6474,
      "vest": 6475,
      "ÑĢ": 6476,
      "Ġà²³": 6477,
      "à³į\\": 6478,
      "à¥į'": 6479,
      "à¤²à¤Ŀ": 6480,
      "Ġà¤¹à¤°à¤ķà¤¤": 6481,
      "à²³à²¤à²¨": 6482,
      "à²·à²¯à²ķ": 6483,
      "à²µà²¨à²µ": 6484,
      "ators": 6485,
      "Ġà²Ńà²ľà²¨": 6486,
      "Ġà²Ĵà²°": 6487,
      "Ġfund": 6488,
      "Ġmult": 6489,
      "Ġdoc": 6490,
      "à²°à²ķà²²": 6491,
      "amat": 6492,
      "Ġnuc": 6493,
      "Ġreve": 6494,
      "Ġliter": 6495,
      "Ġlittle": 6496,
      "adi": 6497,
      "Ġà²®à²¨à²Ĺ": 6498,
      "urb": 6499,
      "ĠIST": 6500,
      "ĠHaw": 6501,
      "ĠHouse": 6502,
      "ĠFace": 6503,
      "ĠGovernment": 6504,
      "à¤ħà¤¤": 6505,
      "à¤ħà¤ķ": 6506,
      "Ġà¤¸à¤¹à¤¨": 6507,
      "Ġà¤¬à¤ļà¤ªà¤¨": 6508,
      "Ġrather": 6509,
      "ĠInf": 6510,
      "ĠInternational": 6511,
      "Ġ189": 6512,
      "à²¯à²ķà²°à²¨": 6513,
      "ĠSte": 6514,
      "Ġlearn": 6515,
      "ferred": 6516,
      "à²¨à²Ĺà²°à²¦": 6517,
      "reng": 6518,
      "Ġremains": 6519,
      "Ġindust": 6520,
      "Ġwriters": 6521,
      "ĠÙĪ": 6522,
      "Ġà¤ıà¤¯à¤°à¤ª": 6523,
      "ĠCarol": 6524,
      "Ġappearance": 6525,
      "Ġupdates": 6526,
      "Ġeventually": 6527,
      "iddle": 6528,
      "gypt": 6529,
      "Ġyards": 6530,
      "Ġà¤°à¤£à¤¬": 6531,
      "Ġissue": 6532,
      "Ġvillage": 6533,
      "ĠOldham": 6534,
      "ĠHenry": 6535,
      "ĠCourt": 6536,
      "ĠFollowing": 6537,
      "liament": 6538,
      "76": 6539,
      "CC": 6540,
      "back": 6541,
      "fect": 6542,
      "hing": 6543,
      "htt": 6544,
      "kannada": 6545,
      "nà²¹": 6546,
      "Ġesc": 6547,
      "Ġà¤£": 6548,
      "à²¿à²¿": 6549,
      "à²¾\"": 6550,
      "à²²à²¯à²¨": 6551,
      "à¤¹à¤ª": 6552,
      "Ġà²®à²°à²Ĺà²³": 6553,
      "Ġà¤ħà¤·": 6554,
      "à³Ĩ..": 6555,
      "heast": 6556,
      "Ġà²ĩà²µà²³": 6557,
      "à¤¼à¥ĩà¤Ĥà¥¤": 6558,
      "à¥Īà¤Ĥ;": 6559,
      "Ġà²ľà²¸": 6560,
      "reme": 6561,
      "Ġwall": 6562,
      "Ġcou": 6563,
      "Ġcred": 6564,
      "Ġbase": 6565,
      "Ġà²²à²²": 6566,
      "ĠTime": 6567,
      "à¤łà¤ķà¤°": 6568,
      "Ġà²¸à²®à²¯à²µ": 6569,
      "à¤Ĩà¤īà¤Ł": 6570,
      "amin": 6571,
      "Ġni": 6572,
      "Ġren": 6573,
      "Ġà²¡à²¯": 6574,
      "Ġlove": 6575,
      "à²°à²¸à²ķ": 6576,
      "Ġà²ĸà²¨": 6577,
      "ĠRock": 6578,
      "Ġvar": 6579,
      "ĠGal": 6580,
      "ĠGST": 6581,
      "à²¯à²®à²Ĺà²³à²²": 6582,
      "Ġstreng": 6583,
      "ĠElection": 6584,
      "ands": 6585,
      "Ġanc": 6586,
      "ria": 6587,
      "ability": 6588,
      "ĠOther": 6589,
      "ĠOff": 6590,
      "à²¡à²¬à²²": 6591,
      "à²¦à²µà²³": 6592,
      "à²·à²¦à²µà²°": 6593,
      "Ġdeal": 6594,
      "Ġplaced": 6595,
      "à²¸à²¨à²¦à²²": 6596,
      "anga": 6597,
      "ĠThom": 6598,
      "anned": 6599,
      "Ġplaying": 6600,
      "Ġdesp": 6601,
      "Ġoutside": 6602,
      "à¥§à¥¨": 6603,
      "à¥§à¥¬": 6604,
      "Ġquest": 6605,
      "Ġmanager": 6606,
      "Ġà²ħà²¬à²ķ": 6607,
      "ĠÙģ": 6608,
      "ĠWhite": 6609,
      "Ġcoast": 6610,
      "ĠAustralian": 6611,
      "ĠMcC": 6612,
      "ĠRegister": 6613,
      "Ġpossible": 6614,
      "Ġjoined": 6615,
      "LI": 6616,
      "NG": 6617,
      "gar": 6618,
      "hib": 6619,
      "ihar": 6620,
      "je": 6621,
      "ux": 6622,
      "well": 6623,
      "à¥ĩ\"": 6624,
      "à²¤à²¯": 6625,
      "à¤¸à¤Ł": 6626,
      "à¤µà¤¥": 6627,
      "Ġà¤¨à¤¡": 6628,
      "Ġà¤īà¤Ń": 6629,
      "Ġà¤¯à¤®": 6630,
      "Ġsection": 6631,
      "itter": 6632,
      "Ġà²®à²¤à²Ĺà²Ł": 6633,
      "Ġà²ļà²®à²ļ": 6634,
      "à¤«à¤²à¤¤": 6635,
      "Ġà²Ńà²¯à²¦": 6636,
      "Ġfood": 6637,
      "ication": 6638,
      "ĠAc": 6639,
      "Ġly": 6640,
      "ĠMost": 6641,
      "ĠBh": 6642,
      "à²¤à²µà²²": 6643,
      "Ġà¤ĩà¤¨à¤¸": 6644,
      "ĠNot": 6645,
      "ĠLaw": 6646,
      "ĠGame": 6647,
      "à²¯à²®à²µà²¨": 6648,
      "ership": 6649,
      "Ġking": 6650,
      "Ġ71": 6651,
      "Ġ88": 6652,
      "ĠOut": 6653,
      "hers": 6654,
      "Ġrace": 6655,
      "à²Ĳà²ª": 6656,
      "Ġitself": 6657,
      "Ġabs": 6658,
      "Ġroom": 6659,
      "Ġà²¹à²³à²¦": 6660,
      "Ġ1999": 6661,
      "Ġà³§à³ª": 6662,
      "Ġ1984": 6663,
      "ocks": 6664,
      "azon": 6665,
      "Ġcalling": 6666,
      "Ġregular": 6667,
      "rology": 6668,
      "Ġsuff": 6669,
      "ĠDepik": 6670,
      "Ġbelieved": 6671,
      "ĠUpd": 6672,
      "Ġsometimes": 6673,
      "à²ľà²¯à²¨à²Ĺà²°": 6674,
      "ĠAngel": 6675,
      "ĠIsrael": 6676,
      "ET": 6677,
      "IST": 6678,
      "down": 6679,
      "ville": 6680,
      "Ø¨": 6681,
      "à³į;": 6682,
      "à¤¾à¥ĩ": 6683,
      "à¤°à¤ľà¤¨": 6684,
      "Ġà²®à²¦à²°": 6685,
      "Ġà²®à²Ĺà²³à²¨": 6686,
      "à²®à²Ĺà²³à²²": 6687,
      "à¤ªà¤¹à¤²": 6688,
      "Ġà²¹à²ł": 6689,
      "Ġà¤µà¤²": 6690,
      "à²¬à²²à²µ": 6691,
      "à²¹à²Ł": 6692,
      "Ġà¤Ĩà¤¸à¤®": 6693,
      "Ġà¤Ĩà¤ĩà¤¸": 6694,
      "à¤¼à¥Į": 6695,
      "Ġà¤ıà¤Ĩà¤Ī": 6696,
      "Ġà²¶à²µ": 6697,
      "Ġwestern": 6698,
      "itor": 6699,
      "à²ķà²°à²²": 6700,
      "asy": 6701,
      "Ġded": 6702,
      "Ġdia": 6703,
      "à²°à²£à²°": 6704,
      "à¤Ĩà¤¨": 6705,
      "Ġà¤ĺà¤¬à¤°": 6706,
      "Ġnar": 6707,
      "ĠCare": 6708,
      "ĠMany": 6709,
      "ĠMex": 6710,
      "Ġà¤§à¤ķ": 6711,
      "Ġà²®à²¨à²°": 6712,
      "Ġà¤Ľà¤ª": 6713,
      "Ġà²«à²¸": 6714,
      "ĠPat": 6715,
      "ĠHow": 6716,
      "ĠFilm": 6717,
      "ĠLive": 6718,
      "à¤¾à¤ģà¥¤": 6719,
      "chi": 6720,
      "ĠKarnataka": 6721,
      "abit": 6722,
      "Ġcome": 6723,
      "Ġà¤Ĩà¤ľà¤®": 6724,
      "iff": 6725,
      "ishop": 6726,
      "india": 6727,
      "Ġà²Ĭà²Łà²¦": 6728,
      "Ġarg": 6729,
      "ĠYes": 6730,
      "ĠAlkan": 6731,
      "rics": 6732,
      "orship": 6733,
      "inau": 6734,
      "Ġsupported": 6735,
      "Ġsoon": 6736,
      "Ġfeatured": 6737,
      "Ġpoem": 6738,
      "Ġattacks": 6739,
      "Ġclaimed": 6740,
      "ĠJapanese": 6741,
      "Ġordered": 6742,
      "Ġeconom": 6743,
      "osaurus": 6744,
      "Ġhours": 6745,
      "Ġjobs": 6746,
      "Ġprobably": 6747,
      "ecutive": 6748,
      "37": 6749,
      "TC": 6750,
      "ees": 6751,
      "lim": 6752,
      "à²¨à²°à²¸": 6753,
      "à¤µà¤£": 6754,
      "Ġà¤ħà¤¥": 6755,
      "Ġà¤°à¤¶": 6756,
      "Ġà¤¤à¤¹à¤°": 6757,
      "Ġà¤īà¤¬": 6758,
      "à¤·à¤¸": 6759,
      "à¤ĸà¤µ": 6760,
      "à²¥à²¤": 6761,
      "eni": 6762,
      "Ġà¤ıà¤ķà¤²": 6763,
      "Ġfuture": 6764,
      "Ġpast": 6765,
      "Ġà²²à²¡": 6766,
      "Ġà¤¡à¤¬à¤²": 6767,
      "ĠSam": 6768,
      "ĠAI": 6769,
      "ĠAwards": 6770,
      "Ġà²¨à²¡à²µà²³": 6771,
      "ĠCM": 6772,
      "Ġreason": 6773,
      "omer": 6774,
      "ĠMey": 6775,
      "Ġthink": 6776,
      "ĠPri": 6777,
      "irt": 6778,
      "Ġgive": 6779,
      "Ġgraph": 6780,
      "Ġà²¬à²°à²Ĺ": 6781,
      "Ġstation": 6782,
      "Ġstars": 6783,
      "à¤īà¤¸à¤ķ": 6784,
      "avi": 6785,
      "akk": 6786,
      "ĠKe": 6787,
      "Ġ108": 6788,
      "Ġ89": 6789,
      "à²ĩà²¦à²¨": 6790,
      "à²¨à²¨à²Ĺ": 6791,
      "à¤ĩà¤¨à¤°": 6792,
      "à¤ıà¤¸à¤Ī": 6793,
      "ogle": 6794,
      "Ġshown": 6795,
      "ĠYear": 6796,
      "Ġà¤°à¤ķà¤®": 6797,
      "action": 6798,
      "views": 6799,
      "à²¯à²¯à²¨à²¦": 6800,
      "Ġ1940": 6801,
      "ĠScott": 6802,
      "Ġfeature": 6803,
      "Ġrespons": 6804,
      "Ġauthority": 6805,
      "ĠHaifa": 6806,
      "ĠApple": 6807,
      "Ġparticularly": 6808,
      "ĠScientology": 6809,
      "RA": 6810,
      "sy": 6811,
      "ware": 6812,
      "Ø¹": 6813,
      "à²°à²³à²²": 6814,
      "à²¤à²£": 6815,
      "Ġà¤®à¤¸à¤²": 6816,
      "Ġà²®à²ľ": 6817,
      "à¤Ĺà¤Ń": 6818,
      "Ġà²¹à²¦à²Ĺ": 6819,
      "Ġà²¬à²²à²¦": 6820,
      "à²¹à²¨à²µà²¨": 6821,
      "Ġà¤Ĩà¤°à¤®": 6822,
      "Ġà¤Ńà¤¦": 6823,
      "à¤¥à¤¤": 6824,
      "à¤Īà¤Ł": 6825,
      "Ġà²Ĺà²²à²Ń": 6826,
      "rey": 6827,
      "Ġself": 6828,
      "Ġsize": 6829,
      "Ġsaying": 6830,
      "Ġfall": 6831,
      "à¤¾à¥¤\"": 6832,
      "Ġpun": 6833,
      "Ġmo": 6834,
      "Ġmust": 6835,
      "Ġhard": 6836,
      "Ġhous": 6837,
      "ĠCouncil": 6838,
      "Ġà²Ĩà²Ĺà²¬à²¹": 6839,
      "Ġlo": 6840,
      "ĠMal": 6841,
      "ĠMount": 6842,
      "à²²à²µà²¤": 6843,
      "Ġà¤Ľà¤²": 6844,
      "urder": 6845,
      "lying": 6846,
      "ĠRuss": 6847,
      "ĠLater": 6848,
      "à²¯à²®à²ķ": 6849,
      "emor": 6850,
      "Ġalone": 6851,
      "ĠEgypt": 6852,
      "aku": 6853,
      "anding": 6854,
      "Ġà¤ĵà¤ª": 6855,
      "Ġà²ĺà²¨": 6856,
      "Ġ81": 6857,
      "à²Ĩà²¨": 6858,
      "Ġrul": 6859,
      "à²¤à²ķà²¦": 6860,
      "à²¥à²³à²Ĺà²³à²²": 6861,
      "Ġà¤¸à¤¤à¤¤": 6862,
      "ector": 6863,
      "Ġà¤ľà¤Ĺà¤¦": 6864,
      "Ġà²¬à²²à²ªà²¡": 6865,
      "Ġintens": 6866,
      "Ġà¤¸à¤¡à¤ķ": 6867,
      "à¥§à¥©": 6868,
      "Ġ1960": 6869,
      "oofa": 6870,
      "ĠÂ£": 6871,
      "Ġoperations": 6872,
      "Ġoccup": 6873,
      "Ġmedia": 6874,
      "Ġupdated": 6875,
      "Ġcycl": 6876,
      "Ġstructure": 6877,
      "53": 6878,
      "LA": 6879,
      "MP": 6880,
      "co": 6881,
      "lor": 6882,
      "à¤¨à¤ļ": 6883,
      "à¤ķà¤ķà¤°": 6884,
      "à¤²à¤°à¤¶": 6885,
      "à¤¹à¤£": 6886,
      "à¥ģ.": 6887,
      "à¤¦à¤¹": 6888,
      "à¤Ĺà¤¶": 6889,
      "Ġà²¹à²²à²¸": 6890,
      "Ġà¤ľà¤¹à¤°": 6891,
      "Ġà²ªà²¬": 6892,
      "Ġà¤¦à¤®à¤¦": 6893,
      "Ġà¤²à¤¤": 6894,
      "à²£à²¬": 6895,
      "Ġtechn": 6896,
      "à²¹à²ļ": 6897,
      "Ġà²İà²Ł": 6898,
      "à²§à²°à²¨": 6899,
      "erat": 6900,
      "Ġà²¦à²£": 6901,
      "à¤Īà¤¨": 6902,
      "à¤Īà¤²": 6903,
      "Ġà²Ĺà²µà²°": 6904,
      "à¤Ńà¤¨": 6905,
      "Ġà¤°à¤¹à¤ķà¤°": 6906,
      "esh": 6907,
      "Ġbig": 6908,
      "Ġpot": 6909,
      "à²ĸà²°à²µ": 6910,
      "Ġà¤Łà¤®": 6911,
      "Ġhat": 6912,
      "Ġhold": 6913,
      "ĠTer": 6914,
      "Ġnames": 6915,
      "à²¦à²¨à²ķ": 6916,
      "ĠMer": 6917,
      "ĠMac": 6918,
      "stant": 6919,
      "ady": 6920,
      "urt": 6921,
      "iding": 6922,
      "imate": 6923,
      "Ġà¤µà¤°à¤¨": 6924,
      "ĠRs": 6925,
      "ĠRash": 6926,
      "ĠNC": 6927,
      "uli": 6928,
      "à¤īà¤ľ": 6929,
      "ume": 6930,
      "Ġà¤ĵà¤Ł": 6931,
      "à²ŀà²¤": 6932,
      "Ġ82": 6933,
      "à¤¦à¤°à¤Ĺ": 6934,
      "oved": 6935,
      "ĠInter": 6936,
      "ips": 6937,
      "Ġyoung": 6938,
      "Ġà²ħà²¡à²ķ": 6939,
      "ords": 6940,
      "Ġunc": 6941,
      "à²Ľà²Ĺ": 6942,
      "à¤Ĭà¤¦": 6943,
      "Ġ1991": 6944,
      "Ġà²Ĺà²£à²ªà²¤": 6945,
      "aze": 6946,
      "uke": 6947,
      "Ġminor": 6948,
      "Ġà²ĭà²£": 6949,
      "Ġà¤ªà¤²à¤Ł": 6950,
      "Ġà¤®à¤¶à¤°": 6951,
      "Ġguitar": 6952,
      "Ġrequired": 6953,
      "Ġparticip": 6954,
      "Ġincreased": 6955,
      "ĠCanada": 6956,
      "Ġcourt": 6957,
      "Ġwanted": 6958,
      "Ġpraised": 6959,
      "ĠModi": 6960,
      "Ġvictory": 6961,
      "Ġlanguage": 6962,
      "Ġappointed": 6963,
      "ĠToday": 6964,
      "44": 6965,
      "65": 6966,
      "Ch": 6967,
      "OS": 6968,
      "\\/": 6969,
      "face": 6970,
      "nà²µ": 6971,
      "Ã¶": 6972,
      "ÅĪ": 6973,
      "à¥ĳ": 6974,
      "à¥Ĵ": 6975,
      "à²¨à²¶": 6976,
      "à²²à²¡": 6977,
      "à²µà²¦à²ķ": 6978,
      "à¥ĭà¤ĥ": 6979,
      "Ġà²ħà²®à²°": 6980,
      "à²ªà²¶": 6981,
      "à¤Łà¤ħà¤ª": 6982,
      "Ġà²¬à²¯à²ķ": 6983,
      "Ġà¤¦à¤£": 6984,
      "Ġà¤°à¤ľà¤¨": 6985,
      "à²ļà²µà²¨": 6986,
      "Ġà¤¤à¤ªà¤¸": 6987,
      "inct": 6988,
      "reak": 6989,
      "edy": 6990,
      "orida": 6991,
      "isi": 6992,
      "Ġà¤ĸà¤ľ": 6993,
      "Ġface": 6994,
      "Ġinj": 6995,
      "Ġpa": 6996,
      "à²ĸà²Ĺà²³": 6997,
      "Ġdon": 6998,
      "Ġà²²à²¤": 6999,
      "ĠSol": 7000,
      "ĠSov": 7001,
      "ĠSchool": 7002,
      "Ġnim": 7003,
      "Ġlack": 7004,
      "olk": 7005,
      "ĠIS": 7006,
      "à²¬à²°à²²": 7007,
      "idel": 7008,
      "Ġà²¬à²³à²¸à²¬": 7009,
      "ĠDist": 7010,
      "ĠDesp": 7011,
      "Ġà²¸à²¹à²¸": 7012,
      "à¤¼à¥ĩ-": 7013,
      "ĠLiz": 7014,
      "change": 7015,
      "abh": 7016,
      "Ġ87": 7017,
      "à²Ńà²µà²µà²¨": 7018,
      "Ġà²Ĳà²¡": 7019,
      "Ġà²Ĳà²µà²°": 7020,
      "à²ĩà²Ĵ": 7021,
      "ills": 7022,
      "ipp": 7023,
      "ipal": 7024,
      "ends": 7025,
      "enders": 7026,
      "ources": 7027,
      "ĠâĢ¢": 7028,
      "Ġ03": 7029,
      "Ġtrade": 7030,
      "Ġtravel": 7031,
      "ricket": 7032,
      "Ġà¥¨à¥«": 7033,
      "ologist": 7034,
      "Ġimmedi": 7035,
      "oys": 7036,
      "Ġdisp": 7037,
      "hens": 7038,
      "Åĭa": 7039,
      "à³¯à³®": 7040,
      "Ġexpressed": 7041,
      "Ġnearly": 7042,
      "ĠQue": 7043,
      "ĠFlorida": 7044,
      "Ġculture": 7045,
      "ospital": 7046,
      "Ð¾Ð": 7047,
      "Ġbehind": 7048,
      "Ġinvolved": 7049,
      "Ġhighest": 7050,
      "Ġmeaning": 7051,
      "ĠSeries": 7052,
      "ĠChapman": 7053,
      "ĠRobert": 7054,
      "ĠWWE": 7055,
      "ĠJesÃºs": 7056,
      "lin": 7057,
      "ng": 7058,
      "oe": 7059,
      "à²²à²Ł": 7060,
      "à²µà²¤à²µ": 7061,
      "à²µà²ļà²¨": 7062,
      "à²Ĥ'": 7063,
      "Ġà¤¹à¤²à¤ķ": 7064,
      "Ġà¤®à¤¯": 7065,
      "Ġà¤®à¤Ĺ": 7066,
      "Ġà¤®à¤°à¤£": 7067,
      "à¤Ĺà¤®à¤¨": 7068,
      "à¤Ĺà¤¦à¤°": 7069,
      "Ġà²¬à²Łà²¨": 7070,
      "à²£à²²à²ķ": 7071,
      "à¤¬à¤ķ": 7072,
      "Ġà¤Ĩà¤°à¤¸": 7073,
      "à²ľà²¶": 7074,
      "à¤§à¤ķà¤°": 7075,
      "à²¶à²¯à²µ": 7076,
      "à²¥à²ª": 7077,
      "Ġsch": 7078,
      "Ġà²ļà²¦": 7079,
      "Ġà¤«à¤¡": 7080,
      "Ġfight": 7081,
      "Ġfree": 7082,
      "Ġbur": 7083,
      "Ġpup": 7084,
      "Ġà²ħà²µà²°à²µà²°": 7085,
      "Ġmom": 7086,
      "rovers": 7087,
      "Ġtouch": 7088,
      "Ġhu": 7089,
      "Ġhit": 7090,
      "ĠTe": 7091,
      "ĠAward": 7092,
      "ils": 7093,
      "ental": 7094,
      "Ġlifestyle": 7095,
      "Ġà¤§à¤¡": 7096,
      "adh": 7097,
      "à¤ĵà¤²": 7098,
      "iga": 7099,
      "Ġforced": 7100,
      "agement": 7101,
      "ceed": 7102,
      "Ġkak": 7103,
      "ĠKumar": 7104,
      "aby": 7105,
      "Ġ93": 7106,
      "Ġà¤Ĩà¤Īà¤Ł": 7107,
      "Ġà¤Ĩà¤Īà¤«": 7108,
      "à¤ıà¤®à¤ıà¤¸": 7109,
      "ĠChampionship": 7110,
      "ĠAlice": 7111,
      "Ġà¤īà¤²à¤Ł": 7112,
      "Ġà¤īà¤²à¤Ŀ": 7113,
      "Ġà¥¨à¥¦à¥¦": 7114,
      "tee": 7115,
      "Ġ1993": 7116,
      "Ġ1994": 7117,
      "Ġworking": 7118,
      "à²¹à²ķà²°à²¨": 7119,
      "Ġaccording": 7120,
      "Ġmetres": 7121,
      "ĠAmazon": 7122,
      "Ġstudy": 7123,
      "à¤ĳà¤«": 7124,
      "Ġdamaged": 7125,
      "Ġà²¸à²¦à²¨à²¦": 7126,
      "Ġapprox": 7127,
      "ĠAfrican": 7128,
      "Ġobserv": 7129,
      "Ġidea": 7130,
      "à¯į": 7131,
      "claimer": 7132,
      "Ġnetwork": 7133,
      "quadron": 7134,
      "Ġcommercial": 7135,
      "Ġdespite": 7136,
      "600": 7137,
      "TV": 7138,
      "ming": 7139,
      "à²¿/": 7140,
      "à²°à²Ĺà²¡": 7141,
      "à¤°à¤¬à¤²": 7142,
      "à¤¨à¤µà¤¤": 7143,
      "à¤ķà¤ľ": 7144,
      "à¤®à¤Ł": 7145,
      "Ġà¤ªà¤ŀ": 7146,
      "Ġà²ķà²¹": 7147,
      "het": 7148,
      "à¤ļà¤¢": 7149,
      "Ġà¤¯à¤¶": 7150,
      "onc": 7151,
      "Ġcas": 7152,
      "Ġclear": 7153,
      "Ġinn": 7154,
      "Ġpare": 7155,
      "ingu": 7156,
      "Ġmor": 7157,
      "Ġdi": 7158,
      "Ġder": 7159,
      "Ġdro": 7160,
      "Ġdate": 7161,
      "Ġdiss": 7162,
      "Ġhom": 7163,
      "lex": 7164,
      "ĠTint": 7165,
      "ĠCont": 7166,
      "ĠIrish": 7167,
      "Ġà¥¯": 7168,
      "Ġgovern": 7169,
      "owler": 7170,
      "à¤¼à¥Ģ-": 7171,
      "thing": 7172,
      "à¤ħà¤ļ": 7173,
      "andon": 7174,
      "osing": 7175,
      "Ġkan": 7176,
      "oph": 7177,
      "Ġà²Ĳà²İ": 7178,
      "Ġriver": 7179,
      "Ġà¤Ĩà¤Īà¤ı": 7180,
      "ortun": 7181,
      "iano": 7182,
      "ishing": 7183,
      "Ġ170": 7184,
      "Ġà¥§à¥§": 7185,
      "à²¢à²¶": 7186,
      "Ġaccess": 7187,
      "Ġimm": 7188,
      "athan": 7189,
      "ample": 7190,
      "Ġà¤ĭà¤ļ": 7191,
      "Ġrelat": 7192,
      "Ġmovement": 7193,
      "à³Ĩ).": 7194,
      "Ġà²ħà²³à²¤": 7195,
      "Ġgrant": 7196,
      "Ġsurround": 7197,
      "ength": 7198,
      "onym": 7199,
      "Ġconstruct": 7200,
      "Ġcarried": 7201,
      "Ġà¤ħà¤¸à¤®à¤°": 7202,
      "Ġtype": 7203,
      "Ġetc": 7204,
      "ĠBattalion": 7205,
      "ĠAssociation": 7206,
      "Ġaverage": 7207,
      "ĠDespite": 7208,
      "iya": 7209,
      "nS": 7210,
      "uy": 7211,
      "ze": 7212,
      "Ġera": 7213,
      "Ġà¤ķà¤¯": 7214,
      "à¥Ģ;": 7215,
      "à²¤à²¶": 7216,
      "à²Ĺà²¸à²°": 7217,
      "à¥ĭ?": 7218,
      "à¤ķà¤¦": 7219,
      "à¤®à¤Ń": 7220,
      "à¤µà¤Ĺà¤¨": 7221,
      "à²Łà²¡à²Ĺà²³": 7222,
      "à¤¦à¤Ń": 7223,
      "Ġà²¨à²²à²µà²¤": 7224,
      "à¤Ĺà¤Łà¤¨": 7225,
      "à¤Ĺà¤ªà¤¤": 7226,
      "Ġà¤µà¤¨à¤¸": 7227,
      "à¥ĭà¤Ĥ?": 7228,
      "à²·à²¸": 7229,
      "Ġà²¤à²¦à²¨": 7230,
      "Ġà²Ĩà²£": 7231,
      "Ġà¤Ĩà¤¡": 7232,
      "Ġà²ĩà²¶": 7233,
      "à²ľà²µà²¨": 7234,
      "Ġà¤īà¤Ľ": 7235,
      "Ġà¤īà¤Ńà¤°": 7236,
      "onse": 7237,
      "enes": 7238,
      "aru": 7239,
      "Ġcal": 7240,
      "Ġfoc": 7241,
      "Ġpain": 7242,
      "Ġmixed": 7243,
      "à¤ĩà¤¶": 7244,
      "enth": 7245,
      "Ġreport": 7246,
      "add": 7247,
      "olic": 7248,
      "ĠBJP": 7249,
      "eck": 7250,
      "ĠHam": 7251,
      "ĠDo": 7252,
      "ĠDu": 7253,
      "thlet": 7254,
      "ulated": 7255,
      "ception": 7256,
      "raw": 7257,
      "riage": 7258,
      "Ġà²īà²ªà²®": 7259,
      "à²ĩà²·": 7260,
      "à²¯à²¸à²Ń": 7261,
      "Ġà¤ħà¤µà¤Ĺà¤¤": 7262,
      "Ġà¤¬à¤²à¤°": 7263,
      "ĠStud": 7264,
      "à²Ĳà²Ĩà²°": 7265,
      "à²¯à²ªà²²": 7266,
      "à³į',": 7267,
      "à²®à²²à²¤": 7268,
      "Ġà²¨à²Ĺà²°à²Ĺà²³": 7269,
      "Ġenj": 7270,
      "Ġcommit": 7271,
      "Ġà¤ħà¤ľà¤®": 7272,
      "Ġremaining": 7273,
      "eke": 7274,
      "Ġà¥©à¥¦": 7275,
      "Ġminutes": 7276,
      "Ġsuper": 7277,
      "Ġentertain": 7278,
      "erms": 7279,
      "Ġaddress": 7280,
      "à¤¼à¥ĩà¤Ĥà¤ĥ": 7281,
      "ĠÂ°": 7282,
      "Ġgroups": 7283,
      "Ġaircraft": 7284,
      "Ġopening": 7285,
      "Ġestablish": 7286,
      "Ġpoints": 7287,
      "Ġschools": 7288,
      "ĠDepartment": 7289,
      "Ġà²¬à²°à²¹à²Ĺ": 7290,
      "Ġadditional": 7291,
      "Ġwords": 7292,
      "Ġconcerned": 7293,
      "Ġdetails": 7294,
      "ĠRanveer": 7295,
      "ĠService": 7296,
      "ĠTintin": 7297,
      "ER": 7298,
      "ker": 7299,
      "mon": 7300,
      "ran": 7301,
      "uan": 7302,
      "ÙĤ": 7303,
      "à³įà²¾": 7304,
      "Ġà¤ķà¤«": 7305,
      "à¤¤à¤¹": 7306,
      "à¤¯à¤¤à¤¨": 7307,
      "Ġà¤¸à¤°à¤¦": 7308,
      "à²®à²ķà²°à²£": 7309,
      "Ġà²ħà²¸à²²": 7310,
      "Ġà¤¨à¤«": 7311,
      "à²ªà²¦à²µ": 7312,
      "Ġà¤²à¤¦": 7313,
      "à¥ĭà¤Ĥ-": 7314,
      "Ġà²ĩà²Łà²²": 7315,
      "à¤§à¤¸": 7316,
      "à¤§à¤¡": 7317,
      "à¤·à¤ª": 7318,
      "Ġà²°à²ľà²¨": 7319,
      "eres": 7320,
      "Ġà²¦à²¶": 7321,
      "Ġslow": 7322,
      "Ġà²¶à²®": 7323,
      "Ġfir": 7324,
      "Ġpiec": 7325,
      "Ġtow": 7326,
      "leg": 7327,
      "Ġà¤¡à¤¬": 7328,
      "à¤Ĩà¤§": 7329,
      "ampl": 7330,
      "à¤¤à¤°à¤¹": 7331,
      "à¤¤à¤°à¤¦": 7332,
      "Ġà¤®à¤¹à¤°": 7333,
      "ĠMos": 7334,
      "Ġà²®à²¨à²¦à²²": 7335,
      "acing": 7336,
      "Ġà²ľà²¨à²¨": 7337,
      "ĠIll": 7338,
      "ĠHol": 7339,
      "usband": 7340,
      "Ġ1930": 7341,
      "à¤µà¤¨à¤¸": 7342,
      "ĠFI": 7343,
      "ĠFar": 7344,
      "ĠFrom": 7345,
      "ĠLatin": 7346,
      "Ġstay": 7347,
      "Ġstage": 7348,
      "agon": 7349,
      "ĠWrit": 7350,
      "Ġà²ķà²³à²µ": 7351,
      "Ġà¤¦à¤°à¤¬": 7352,
      "Ġkil": 7353,
      "ĠOver": 7354,
      "à²ħà²Ń": 7355,
      "Ġ!\"": 7356,
      "udget": 7357,
      "ards": 7358,
      "à²¤à²ķà²Ĺà²³": 7359,
      "Ġchap": 7360,
      "Ġspent": 7361,
      "ellig": 7362,
      "à²µà²µà²°à²¨": 7363,
      "Ġà²Ĭà²Łà²ķ": 7364,
      "Ġà²¨à²Ĺà²°à²Ĺà²³à²²": 7365,
      "Ġwhole": 7366,
      "Ġscene": 7367,
      "Ġconsist": 7368,
      "Ġtransl": 7369,
      "ĠPolish": 7370,
      "Ġphys": 7371,
      "Ġbreak": 7372,
      "Ġdiscuss": 7373,
      "Ġà²¸à²¦à²¨à²¦à²²": 7374,
      "porary": 7375,
      "Ġproduct": 7376,
      "âĢ¢": 7377,
      "ĠChristian": 7378,
      "Ġpossib": 7379,
      "Ġpreviously": 7380,
      "ready": 7381,
      "ĠPeter": 7382,
      "Ġdebut": 7383,
      "Ġlimited": 7384,
      "ĠCroat": 7385,
      "stitute": 7386,
      "Ġprimary": 7387,
      "ĠFederer": 7388,
      "ĠConditions": 7389,
      "stein": 7390,
      "Ġlyrics": 7391,
      "ĠMeyer": 7392,
      "Ġapproximately": 7393,
      "64": 7394,
      "Ar": 7395,
      "Ph": 7396,
      "SK": 7397,
      "iers": 7398,
      "nD": 7399,
      "ving": 7400,
      "zie": 7401,
      "Äĩ": 7402,
      "Ø©": 7403,
      "Ġess": 7404,
      "à¤°à¤¬à¤¨": 7405,
      "à²¾)": 7406,
      "à²ķà²¯": 7407,
      "à²¡à²£": 7408,
      "Ġà¤®à¤®": 7409,
      "à¥ĩà¤Ĥ)": 7410,
      "Ġà¤¨à¤µà¤¨": 7411,
      "Ġà¤ľà¤ĸ": 7412,
      "Ġà¤ħà¤µà¤°": 7413,
      "à²£à²¨à²¨": 7414,
      "Ġtar": 7415,
      "Ġtrib": 7416,
      "Ġtechnology": 7417,
      "Ġà¤īà¤§": 7418,
      "Ġà¤īà¤·": 7419,
      "à²§à²¶": 7420,
      "Ġà¤ĩà¤ľà¤°": 7421,
      "Ġà¤Ńà¤ľà¤¨": 7422,
      "Ġsays": 7423,
      "anies": 7424,
      "isation": 7425,
      "Ġà¤ĸà¤¦": 7426,
      "Ġà²Ńà²µà²¨": 7427,
      "Ġà²Ĵà²¡à²¨": 7428,
      "Ġfleet": 7429,
      "Ġà²¯à²µ": 7430,
      "Ġmb": 7431,
      "lease": 7432,
      "à¤Ĩà¤µà¤ľ": 7433,
      "aming": 7434,
      "Ġnatural": 7435,
      "à¤¤à¤°à¤ª": 7436,
      "ĠCreek": 7437,
      "à²İà²®": 7438,
      "Ġà¤®à¤¹à¤²": 7439,
      "Ġlhe": 7440,
      "Ġliving": 7441,
      "ĠMen": 7442,
      "ĠPenn": 7443,
      "usp": 7444,
      "ĠDem": 7445,
      "Ġforward": 7446,
      "Ġà²¸à²¹à²¯": 7447,
      "Ġwithd": 7448,
      "à¤īà¤²": 7449,
      "à²Łà²ķà²µ": 7450,
      "à¤ĺà¤µ": 7451,
      "Ġà²ķà²¡à²¬": 7452,
      "ĠOper": 7453,
      "Ġà¤ļà¤²à¤ķà¤°": 7454,
      "à²Ĩà²¸": 7455,
      "quar": 7456,
      "à²Łà²µà²¶": 7457,
      "Ġà²ıà²ķà²ķ": 7458,
      "ĠChic": 7459,
      "Ġà²Ĵà²³à²¨": 7460,
      "Ġuses": 7461,
      "Ġcontem": 7462,
      "anning": 7463,
      "Ġ1997": 7464,
      "ference": 7465,
      "Ġparty": 7466,
      "Ġincludes": 7467,
      "à³¨à³¦": 7468,
      "Ġà¤Ĺà¤£à¤°": 7469,
      "Ġsecurity": 7470,
      "Ġ1988": 7471,
      "Ġrain": 7472,
      "ĠSpec": 7473,
      "Ġlarger": 7474,
      "Ġinterview": 7475,
      "Ġmusical": 7476,
      "ĠPrivacy": 7477,
      "Ġ3200": 7478,
      "Ġarticle": 7479,
      "Ġparts": 7480,
      "Ġstudents": 7481,
      "Ġshows": 7482,
      "minist": 7483,
      "Ġconfir": 7484,
      "\":\"": 7485,
      "Ġsummer": 7486,
      "Ġprofessional": 7487,
      "Ġquickly": 7488,
      "Ġconversation": 7489,
      "ĠThomas": 7490,
      "58": 7491,
      "AL": 7492,
      "NL": 7493,
      "OT": 7494,
      "SP": 7495,
      "hou": 7496,
      "ih": 7497,
      "ires": 7498,
      "lig": 7499,
      "lock": 7500,
      "rang": 7501,
      "ties": 7502,
      "Ø³": 7503,
      "à¤ĭ": 7504,
      "à³Ĩà³Ĩ": 7505,
      "à²¨à²£": 7506,
      "Ġà¤¸à¤¯": 7507,
      "Ġà¤¸à¤Ĭà¤¦": 7508,
      "à²¸à²¨à²µ": 7509,
      "à²³à²Ĺà²³": 7510,
      "à²Łà²¡à²¦": 7511,
      "Ġà¤¬à¤ĺ": 7512,
      "à¤ľà¤Ń": 7513,
      "à²·à²²": 7514,
      "à¤¶à¤ª": 7515,
      "Ġà²¤à²Ĺà²²": 7516,
      "Ġà²ĩà²°à²¦": 7517,
      "Ġà¤¤à¤¡": 7518,
      "Ġà¤¤à¤²à¤µ": 7519,
      "Ġà¤ĩà¤Łà¤²": 7520,
      "à¤¼à¥ī": 7521,
      "Ġà¤ªà¤°à¤¦": 7522,
      "Ġà²¦à²°à²µà²¨": 7523,
      "ono": 7524,
      "à¤Īà¤ª": 7525,
      "à¤ĸà¤¬à¤°": 7526,
      "anish": 7527,
      "Ġcam": 7528,
      "Ġcertain": 7529,
      "Ġcele": 7530,
      "alo": 7531,
      "Ġmight": 7532,
      "icro": 7533,
      "icted": 7534,
      "Ġdoll": 7535,
      "Ġhol": 7536,
      "Ġà²¸à²®à²ķ": 7537,
      "à²İà²ª": 7538,
      "Ġlog": 7539,
      "à²²à²µà²²": 7540,
      "Ġà²ľà²¨à²ķ": 7541,
      "eta": 7542,
      "ĠPac": 7543,
      "idents": 7544,
      "ĠHind": 7545,
      "ĠDirect": 7546,
      "ows": 7547,
      "aging": 7548,
      "Ġalready": 7549,
      "ĠEv": 7550,
      "umber": 7551,
      "uments": 7552,
      "Ġanti": 7553,
      "Ġà²Ĳà²µà²¤": 7554,
      "à²¬à²²à²µà²¨": 7555,
      "Ġchange": 7556,
      "à²°à²ķà²°à²£à²Ĺà²³à²¨": 7557,
      "à¤¶à¤ķà¤¶": 7558,
      "Ġà²Ĺà²®à²¨à²¦à²²": 7559,
      "Ġtrue": 7560,
      "Ġjud": 7561,
      "Ġà¤¢à¤ķ": 7562,
      "Ġscore": 7563,
      "...)": 7564,
      "Ġprevent": 7565,
      "Ġcommission": 7566,
      "à¥§à¥¯": 7567,
      "ĠEnter": 7568,
      "Ġpriv": 7569,
      "Ġfilms": 7570,
      "Ġtransport": 7571,
      "ext": 7572,
      "Ġcreate": 7573,
      "Ġmarinau": 7574,
      "à¥¦à¥¦à¥¦": 7575,
      "Ġresponse": 7576,
      "Ġelection": 7577,
      "Ġà¤ĭà¤·à¤Ń": 7578,
      "Ġincreasing": 7579,
      "Ġtemple": 7580,
      "Ġinformation": 7581,
      "Ġmagazine": 7582,
      "á¸¡a": 7583,
      "Ġnorthern": 7584,
      "Ġtraditional": 7585,
      "Ġradio": 7586,
      "Ġastrology": 7587,
      "ĠDioso": 7588,
      "Ġà²Ĺà²Ĺà²¨à²¨": 7589,
      "Ġdocument": 7590,
      "eratops": 7591,
      "\".": 7592,
      "52": 7593,
      "Ah": 7594,
      "SD": 7595,
      "bers": 7596,
      "hod": 7597,
      "xy": 7598,
      "Ðº": 7599,
      "Ð»": 7600,
      "à²¯à²§": 7601,
      "à¤²à¤ĸ": 7602,
      "à²¸à²°à²ķ": 7603,
      "Ġà¤®à¤°à¤®": 7604,
      "Ġà¤ªà¤¤à¤¨": 7605,
      "à¥Ī)": 7606,
      "à¤¦à¤°à¤¤": 7607,
      "à¤Ĺà¤µà¤¤": 7608,
      "à²ªà²ļ": 7609,
      "à²ªà²ķà²°à²£": 7610,
      "Ġà¤ħà¤£": 7611,
      "à³ĭ-": 7612,
      "à¤¡à¤ª": 7613,
      "à²ļà²¤": 7614,
      "à²¦à²°à²°": 7615,
      "Ġà¤Ĩà¤¸à¤¨": 7616,
      "Ġà¤¤à¤¦à¤¨": 7617,
      "Ġà¤¶à¤°à¤¦": 7618,
      "à¤Ńà¤²": 7619,
      "à³Ī-": 7620,
      "Ġol": 7621,
      "itch": 7622,
      "Ġà¤ıà¤ķà¤¡": 7623,
      "isl": 7624,
      "Ġcann": 7625,
      "Ġbodies": 7626,
      "Ġmis": 7627,
      "à¤ĩà¤ªà¤°": 7628,
      "Ġà¤¡à¤ķ": 7629,
      "ĠSun": 7630,
      "ĠSince": 7631,
      "ĠCamp": 7632,
      "Ġlength": 7633,
      "ĠMinn": 7634,
      "Ġthus": 7635,
      "Ġthick": 7636,
      "olution": 7637,
      "ĠBey": 7638,
      "eter": 7639,
      "à¤¸à¤°à¤¸": 7640,
      "ĠPublic": 7641,
      "Ġge": 7642,
      "ĠHall": 7643,
      "à¤¯à¤®à¤¨": 7644,
      "à²ľà²¨à²¨": 7645,
      "Ġà²ķà²°à²¡": 7646,
      "Ġà²®à²¹à²°": 7647,
      "ĠNic": 7648,
      "ĠNort": 7649,
      "ĠFowler": 7650,
      "ĠLet": 7651,
      "ĠLight": 7652,
      "ĠGerm": 7653,
      "Ġstop": 7654,
      "erset": 7655,
      "agu": 7656,
      "ĠWi": 7657,
      "ĠWestern": 7658,
      "Ġaltern": 7659,
      "Ġkok": 7660,
      "Ġkini": 7661,
      "à²¶à²¨à²µà²¨": 7662,
      "Ġà²Ĩà²ķà²¸": 7663,
      "Ġà¤łà¤Ĺ": 7664,
      "Ġdeep": 7665,
      "à²¸à²¦à²¸": 7666,
      "Ġà¤Ĩà¤Īà¤¡": 7667,
      "ocr": 7668,
      "ĠViet": 7669,
      "à²¥à²³à²µ": 7670,
      "à²°à²Ńà²¦": 7671,
      "Ġà²¬à²¸à²µà²£": 7672,
      "Ġà²¨à²Ĺà²°à²ķ": 7673,
      "à¤°à¤«à¤²": 7674,
      "Ġscoring": 7675,
      "à¥¨à¥¦": 7676,
      "ĠMaruti": 7677,
      "shire": 7678,
      "Ġrap": 7679,
      "Ġ1975": 7680,
      "ĠBrar": 7681,
      "Åĭu": 7682,
      "Ġà¤®à¤ķà¤¸à¤¦": 7683,
      "Ġà²ħà²¹à²®à²¦": 7684,
      "Ġaccount": 7685,
      "999": 7686,
      "Ġcontinue": 7687,
      "ĠAgree": 7688,
      "ÉĹo": 7689,
      "ĠParis": 7690,
      "ĠChef": 7691,
      "beer": 7692,
      "ĠBattle": 7693,
      "ĠCentral": 7694,
      "aughter": 7695,
      "ĠSecret": 7696,
      "Ġfailed": 7697,
      "Ġbroadcast": 7698,
      "ĠSomerset": 7699,
      "Ġfifth": 7700,
      "ĠHistory": 7701,
      "Ġspirituality": 7702,
      "ĠCookies": 7703,
      "Ġreveal": 7704,
      "46": 7705,
      "79": 7706,
      "88": 7707,
      "eer": 7708,
      "gn": 7709,
      "gen": 7710,
      "ias": 7711,
      "lers": 7712,
      "light": 7713,
      "sen": 7714,
      "uu": 7715,
      "à²²à²¯à²µà²¨": 7716,
      "Ġà¤®à¤ĸ": 7717,
      "à²Łà²Ĺà²³à²²": 7718,
      "à¤¦à¤ľ": 7719,
      "à¤ªà¤°à¤®": 7720,
      "à¤Łà¤ĩ": 7721,
      "Ġà¤µà¤Ĺ": 7722,
      "Ġà¤²à¤ĸ": 7723,
      "Ġà²µà²¡": 7724,
      "à²·à²¬": 7725,
      "à¤¥à¤¶": 7726,
      "ening": 7727,
      "arily": 7728,
      "alys": 7729,
      "Ġburn": 7730,
      "Ġbollywood": 7731,
      "à²ĸà²®": 7732,
      "ington": 7733,
      "Ġtourn": 7734,
      "Ġdone": 7735,
      "Ġhop": 7736,
      "Ġhusband": 7737,
      "lege": 7738,
      "ĠTerms": 7739,
      "ĠSum": 7740,
      "ĠShar": 7741,
      "ouri": 7742,
      "à¤Ĩà¤¯": 7743,
      "ami": 7744,
      "Ġng": 7745,
      "Ġnomin": 7746,
      "à²İà²ĩ": 7747,
      "à²°à²®à²£à²ķ": 7748,
      "ĠMo": 7749,
      "adian": 7750,
      "à²¸à²°à²²": 7751,
      "ĠBre": 7752,
      "ĠBart": 7753,
      "Ġga": 7754,
      "ima": 7755,
      "oted": 7756,
      "Ġà¤ĩà¤¨à¤ª": 7757,
      "ĠRail": 7758,
      "Ġà¤¬à¤¹à¤¤": 7759,
      "ĠNH": 7760,
      "ĠNor": 7761,
      "ĠNavy": 7762,
      "ĠFey": 7763,
      "ĠWood": 7764,
      "Ġang": 7765,
      "eway": 7766,
      "ift": 7767,
      "Ġà¤Ĩà¤Ĺà¤®à¤¨": 7768,
      "ube": 7769,
      "à²¤à²ķà²Ĺà²³à²¨": 7770,
      "Ġà¤Īà¤¯à¤°": 7771,
      "à¤Łà¤ķà¤Ł": 7772,
      "ĠStay": 7773,
      "Ġà¤®à¤¦à¤°à¤¸": 7774,
      "Ġ140": 7775,
      "Ġwhether": 7776,
      "aching": 7777,
      "ribution": 7778,
      "à¤°à¤ĸà¤ª": 7779,
      "Ġmeans": 7780,
      "anced": 7781,
      "à³¨à³¦à³¦": 7782,
      "Ġ1989": 7783,
      "Ġmovie": 7784,
      "Ġ1947": 7785,
      "Ã«n": 7786,
      "ĠXX": 7787,
      "Ġmetal": 7788,
      "ĠBritain": 7789,
      "Ġstudio": 7790,
      "Ġcritical": 7791,
      "Ġbrother": 7792,
      "Ġvisit": 7793,
      "Ġgreatest": 7794,
      "Ġà¤Ńà¤Ĺà¤µà¤¤": 7795,
      "Ġlisted": 7796,
      "ĠJesus": 7797,
      "ĠPortug": 7798,
      "Ġstatus": 7799,
      "Ġbajarap": 7800,
      "aranasi": 7801,
      "Ġentertainment": 7802,
      "ĠMeyerbeer": 7803,
      "41": 7804,
      "42": 7805,
      "AC": 7806,
      "BA": 7807,
      "OV": 7808,
      "PS": 7809,
      "rid": 7810,
      "west": 7811,
      "Ġesp": 7812,
      "à³įâĢ": 7813,
      "à²¿),": 7814,
      "à¤¸à¤«à¤°": 7815,
      "à²¸à²¨à²¦": 7816,
      "Ġà²¨à²°à²ķ": 7817,
      "Ġà²¨à²°à²³": 7818,
      "Ġà²ħà²ľà²¯": 7819,
      "Ġà¤¬à¤µ": 7820,
      "Ġà¤¨à¤²": 7821,
      "Ġà¤¨à¤°à¤¸": 7822,
      "à²£à²ªà²¤": 7823,
      "Ġà²µà²§": 7824,
      "Ġta": 7825,
      "Ġtu": 7826,
      "Ġtor": 7827,
      "à²·à²°à²Ĺà²³": 7828,
      "Ġà²¦à²¨à²Ĺà²³": 7829,
      "à¤Ńà¤®": 7830,
      "Ġwoman": 7831,
      "Ġwinning": 7832,
      "aring": 7833,
      "Ġà¤ıà¤ķà¤¦à¤®": 7834,
      "Ġà²Ĵà²¯": 7835,
      "Ġà²īà²Ł": 7836,
      "Ġflow": 7837,
      "Ġpan": 7838,
      "Ġmurder": 7839,
      "ican": 7840,
      "ĠTour": 7841,
      "ĠSever": 7842,
      "amma": 7843,
      "Ġlay": 7844,
      "Ġlived": 7845,
      "Ġà²ľà²¨à²ľ": 7846,
      "à¤Łà¤°à¤ª": 7847,
      "Ġà²ıà²³à²¨": 7848,
      "ĠBen": 7849,
      "ĠBus": 7850,
      "ĠBob": 7851,
      "à¤¶à¤¨à¤°": 7852,
      "Ġemer": 7853,
      "irus": 7854,
      "imb": 7855,
      "ĠHurricane": 7856,
      "otor": 7857,
      "ĠRel": 7858,
      "Ġasp": 7859,
      "ĠLo": 7860,
      "cean": 7861,
      "aval": 7862,
      "à¤ĺà¤Ł": 7863,
      "akistan": 7864,
      "à¤ľà¤°à¤¨": 7865,
      "ĠJew": 7866,
      "Ġ105": 7867,
      "Ġcoming": 7868,
      "à²°à²¹à²µà²¨": 7869,
      "ify": 7870,
      "ova": 7871,
      "ĠUP": 7872,
      "à²¤à²ķà²¦à²²": 7873,
      "à²°à²ķà²°à²£à²µ": 7874,
      "Ġleaving": 7875,
      "Ġabandon": 7876,
      "Ġadvert": 7877,
      "à¤¯à¤¸à¤µ": 7878,
      "Ġà²¬à²¡à²¤à²¨": 7879,
      "Ġscreen": 7880,
      "à²²à²¯à²Ĺà²³à²²": 7881,
      "ĠReal": 7882,
      "à¤¾',": 7883,
      "Ġwriter": 7884,
      "Ġsymb": 7885,
      "ĠScot": 7886,
      "ĠMissouri": 7887,
      "Ġforms": 7888,
      "Ġrecording": 7889,
      "ylv": 7890,
      "Ġservices": 7891,
      "Ġteams": 7892,
      "Ġpassed": 7893,
      "Ġtakes": 7894,
      "Ġchanged": 7895,
      "Ġreferred": 7896,
      "Ġdefeated": 7897,
      "Ġwidely": 7898,
      "Ġreligious": 7899,
      "Ġfemale": 7900,
      "Ġquestion": 7901,
      "ĠLizzie": 7902,
      "ĠChicago": 7903,
      "'.": 7904,
      "Bengaluru": 7905,
      "CD": 7906,
      "burg": 7907,
      "fit": 7908,
      "gely": 7909,
      "las": 7910,
      "Ġ>": 7911,
      "à²°à²°à²²": 7912,
      "à²Ĺà²§": 7913,
      "à¤¯à¤µà¤°": 7914,
      "à²¸à²°à²µ": 7915,
      "Ġà¤ªà¤§": 7916,
      "Ġà¤ªà¤Ľ": 7917,
      "Ġà²¸à²µà²¦": 7918,
      "à¥¤\"": 7919,
      "à¤Ĺà¤£à¤¨": 7920,
      "Ġà¤¨à¤°à¤®": 7921,
      "Ġtaking": 7922,
      "à¤ıà¤Łà¤°": 7923,
      "Ġà²¤à²¹à²¸": 7924,
      "à²µà²°à²ķ": 7925,
      "à¤Ńà¤Ĺà¤µ": 7926,
      "Ġsal": 7927,
      "araj": 7928,
      "Ġà¤ıà¤ķà¤¨": 7929,
      "esota": 7930,
      "alle": 7931,
      "Ġfully": 7932,
      "Ġà¤īà¤¨à¤ªà¤°": 7933,
      "Ġpage": 7934,
      "à²ĸà²ª": 7935,
      "Ġmole": 7936,
      "ros": 7937,
      "Ġdram": 7938,
      "Ġà²²à²ĺ": 7939,
      "ĠTest": 7940,
      "Ġà²ħà²¨à²Ĺà²¤": 7941,
      "ĠSarn": 7942,
      "ĠSuz": 7943,
      "ĠAre": 7944,
      "ĠArab": 7945,
      "à¤Ĩà¤²": 7946,
      "Ġnation": 7947,
      "ĠCast": 7948,
      "ĠCeres": 7949,
      "à²¡à²²à²¦": 7950,
      "Ġla": 7951,
      "ĠMas": 7952,
      "acted": 7953,
      "aches": 7954,
      "ĠBan": 7955,
      "ĠBas": 7956,
      "à¤¶à¤¨à¤¶": 7957,
      "à²ľà²¨à²Ĺà²³à²¨": 7958,
      "Ġveh": 7959,
      "ĠND": 7960,
      "à²Ĺà²¦à²¦": 7961,
      "ĠLuc": 7962,
      "ĠLake": 7963,
      "Ġstories": 7964,
      "ĠEll": 7965,
      "ĠJust": 7966,
      "ĠKh": 7967,
      "ĠOtt": 7968,
      "Ġà¤ĳà¤¨": 7969,
      "Ġà¤ĳà¤¯à¤²": 7970,
      "Ġà²Ĳà²°": 7971,
      "Ġdead": 7972,
      "Ġ128": 7973,
      "à²§à²¨à²µà²¨": 7974,
      "Ġsex": 7975,
      "Ġà¤Ŀà¤¡": 7976,
      "ugg": 7977,
      "ĠVen": 7978,
      "Ġexample": 7979,
      "Ġà¤īà¤®à¤¡": 7980,
      "à¤Łà¤²à¤°": 7981,
      "ĠChina": 7982,
      "Ġunit": 7983,
      "Ġunits": 7984,
      "ĠYank": 7985,
      "Ġusually": 7986,
      "Ġclosed": 7987,
      "Ġcontroll": 7988,
      "Ġcontrovers": 7989,
      "ĠAli": 7990,
      "Ġresults": 7991,
      "teen": 7992,
      "Ġà¤¸à¤¨à¤¸à¤¨": 7993,
      "Ġdism": 7994,
      "à²·à²¯à²Ĺà²³à²²": 7995,
      "Ġmeant": 7996,
      "ountain": 7997,
      "à¥§à¥§": 7998,
      "à¥§à¥Ń": 7999,
      "Ġthemsel": 8000,
      "Ġà³¨à³«": 8001,
      "Ġ1986": 8002,
      "Ġ1987": 8003,
      "Ġ1973": 8004,
      "Ġ1978": 8005,
      "Ġbetter": 8006,
      "à¤ľà¤Ĺà¤¹": 8007,
      "orning": 8008,
      "Ġentered": 8009,
      "ĠLeg": 8010,
      "Ġserious": 8011,
      "ĠPrice": 8012,
      "ification": 8013,
      "Ġlocation": 8014,
      "Ġlonger": 8015,
      "ĠPolice": 8016,
      "Ġà¤¨à¤ķà¤¦": 8017,
      "Ġestim": 8018,
      "Ġepisodes": 8019,
      "ĠÙĤ": 8020,
      "Ġcomplete": 8021,
      "Ġconcert": 8022,
      "Ġupdate": 8023,
      "ĠGoogle": 8024,
      "Ġcommented": 8025,
      "Ġà¤·à¤¡": 8026,
      "Ġintroduced": 8027,
      "rief": 8028,
      "ĠSuper": 8029,
      "Ġassociated": 8030,
      "Ġprior": 8031,
      "Ġdiscovered": 8032,
      "ĠDisclaimer": 8033,
      "ĠMexico": 8034,
      "quarters": 8035,
      "ĠPacific": 8036,
      "ĠMinnesota": 8037,
      "à³įâĢĻ": 8038,
      "Ġthemselves": 8039,
      "AF": 8040,
      "CE": 8041,
      "MC": 8042,
      "RI": 8043,
      "een": 8044,
      "hood": 8045,
      "key": 8046,
      "lie": 8047,
      "mm": 8048,
      "mark": 8049,
      "nis": 8050,
      "war": 8051,
      "yal": 8052,
      "áĢ": 8053,
      "à²°à²«": 8054,
      "Ġà¤ķà¤ľ": 8055,
      "Ġà¤ķà¤£": 8056,
      "à²²à²¦à²°": 8057,
      "à²Ĺà²¯": 8058,
      "à¤¨à¤ľ": 8059,
      "à²µà²¦à²¨": 8060,
      "à¤¤à¤¯": 8061,
      "à³ĩ!": 8062,
      "Ġà²¸à²°à²¦": 8063,
      "Ġà²¸à²¬à²²": 8064,
      "Ġà¤¬à¤Łà¤¨": 8065,
      "Ġà²ªà²£": 8066,
      "à²¬à²£": 8067,
      "Ġà¤°à¤¬": 8068,
      "Ġtest": 8069,
      "Ġtax": 8070,
      "à²¹à²¨à²µ": 8071,
      "à²ļà²ķà²°": 8072,
      "Ġà²ĩà²¡à²¬": 8073,
      "inent": 8074,
      "à¤ļà¤¡": 8075,
      "à¤·à¤¨": 8076,
      "à¤¥à¤ª": 8077,
      "à¥Īà¤Ĥ-": 8078,
      "à¤Īà¤¯": 8079,
      "Ġsaf": 8080,
      "Ġbirth": 8081,
      "Ġtoday": 8082,
      "lete": 8083,
      "ĠSix": 8084,
      "à²°à²ķà²¥": 8085,
      "à¤Ĩà¤¦": 8086,
      "Ġnorm": 8087,
      "ĠCop": 8088,
      "Ġlines": 8089,
      "ĠMah": 8090,
      "ado": 8091,
      "ĠBack": 8092,
      "ĠHum": 8093,
      "à²łà²ķ": 8094,
      "Ġve": 8095,
      "Ġver": 8096,
      "ĠFe": 8097,
      "Ġstep": 8098,
      "Ġstone": 8099,
      "Ġstates": 8100,
      "ĠWel": 8101,
      "Ġconfl": 8102,
      "ĠOf": 8103,
      "à²ħà²Ĺ": 8104,
      "aina": 8105,
      "Ġ97": 8106,
      "uda": 8107,
      "à¤ıà¤¸à¤ı": 8108,
      "Ġà¤¤à¤°à¤²": 8109,
      "Ġà¤Īà¤¡": 8110,
      "ĠVaranasi": 8111,
      "Ġexist": 8112,
      "Ġshoot": 8113,
      "Ġnotes": 8114,
      "anger": 8115,
      "hedral": 8116,
      "ĠThree": 8117,
      "Ġà¤Ĩà¤ķà¤²à¤¨": 8118,
      "Ġenough": 8119,
      "anks": 8120,
      "à²¸à²ķà²°à²¨": 8121,
      "Ġfeel": 8122,
      "Ġrare": 8123,
      "Ġ1971": 8124,
      "Ġended": 8125,
      "Ġspecific": 8126,
      "ĠBrad": 8127,
      "Ġà¤ľà¤¨à¤¸à¤Ń": 8128,
      "Ġ1956": 8129,
      "êŀĮe": 8130,
      "enne": 8131,
      "Ġruns": 8132,
      "ĠÙħ": 8133,
      "Ġcomplet": 8134,
      "Ġoperation": 8135,
      "Ġsigned": 8136,
      "Ġdeterm": 8137,
      "Ġà³«à³¦": 8138,
      "Ġà²¦à²¶à²ķà²¦": 8139,
      "Ġdesigned": 8140,
      "á¹ī": 8141,
      "Ġobsc": 8142,
      "Ġtwent": 8143,
      "Ġiniti": 8144,
      "Ġwinds": 8145,
      "Ġmeeting": 8146,
      "Ġbirds": 8147,
      "Ġpressure": 8148,
      "ĠOpen": 8149,
      "India": 8150,
      "ĠVirgin": 8151,
      "ĠCongress": 8152,
      "ĠRichard": 8153,
      "ĠHawai": 8154,
      "ĠFacebook": 8155,
      "ĠSoviet": 8156,
      "onymous": 8157,
      "elligence": 8158,
      "03": 8159,
      "06": 8160,
      "43": 8161,
      "ko": 8162,
      "mar": 8163,
      "mir": 8164,
      "sr": 8165,
      "uen": 8166,
      "à³ģ/": 8167,
      "à²¨à²ªà²¡": 8168,
      "à²ķÃ¸": 8169,
      "à¤¯à¤«": 8170,
      "à¤¸à¤°à¤£": 8171,
      "Ġà¤¸à¤¶à¤ķ": 8172,
      "Ġà¤¸à¤¶à¤¸": 8173,
      "Ġà¤®à¤ķà¤°": 8174,
      "Ġà²ķà²ķ": 8175,
      "à¤¦à¤ķà¤°": 8176,
      "à¥ĩà¤Ĥ?": 8177,
      "Ġà²¹à²¸à²¨": 8178,
      "à¤Łà¤¡": 8179,
      "à²Ĺà²³à²¦à²²": 8180,
      "à¤¶à¤¹": 8181,
      "à²¹à²¨à²¦à²²": 8182,
      "à¤·à¤ķà¤°": 8183,
      "à¤¾à¤Ĥ-": 8184,
      "Ġwide": 8185,
      "itz": 8186,
      "Ġà¤ıà¤ķà¤ľ": 8187,
      "Ġcle": 8188,
      "Ġfans": 8189,
      "à²¤à²°à²ª": 8190,
      "Ġpay": 8191,
      "Ġpiano": 8192,
      "Ġho": 8193,
      "ĠTor": 8194,
      "ĠSR": 8195,
      "ĠSen": 8196,
      "ĠSur": 8197,
      "ĠAk": 8198,
      "ila": 8199,
      "ĠCred": 8200,
      "Ġreviews": 8201,
      "ĠMr": 8202,
      "ĠMun": 8203,
      "ĠMajor": 8204,
      "ston": 8205,
      "à²«à²²à²°": 8206,
      "achel": 8207,
      "ĠIN": 8208,
      "Ġà²ıà²µ": 8209,
      "ider": 8210,
      "Ġgot": 8211,
      "Ġà²ħà²µà²¹": 8212,
      "ĠHill": 8213,
      "à²®à²¨à²¹à²³": 8214,
      "Ġà¤īà¤ªà¤¹": 8215,
      "Ġà²§à²µà²¨": 8216,
      "Ġasked": 8217,
      "ĠFinal": 8218,
      "ĠGreen": 8219,
      "ulations": 8220,
      "à¤īà¤ª": 8221,
      "ĠWater": 8222,
      "ĠEarth": 8223,
      "umi": 8224,
      "Ġconclud": 8225,
      "Ġkind": 8226,
      "Ġ107": 8227,
      "à²ħà²¸": 8228,
      "aine": 8229,
      "apt": 8230,
      "Ġà²Ĳà²·": 8231,
      "Ġà²īà²ªà²Ĺ": 8232,
      "Ġ92": 8233,
      "à²¶à²¨à²Ĺà²³": 8234,
      "à²¤à²¹à²µà²°": 8235,
      "Ġà¤ħà¤ªà¤¹à¤°à¤£": 8236,
      "Ġà¤ħà¤¸à¤¦": 8237,
      "Ġà¤ħà¤¸à¤«à¤²": 8238,
      "Ġà¤īà¤¦à¤¯à¤ª": 8239,
      "ogue": 8240,
      "ubmitted": 8241,
      "Ġchall": 8242,
      "2022": 8243,
      "2023": 8244,
      "2021": 8245,
      "à²°à²³à²µ": 8246,
      "Ġà²ªà²¦à²Ĺà²³à²¨": 8247,
      "Ġà²ĩà²µà²°à²²": 8248,
      "à¤Ĩà¤°à¤Ĩà¤Ī": 8249,
      "Ġà¥¨à¥¬": 8250,
      "Ġens": 8251,
      "ounds": 8252,
      "Ġà¤ıà¤®à¤¸": 8253,
      "Ġmostly": 8254,
      "Ġremain": 8255,
      "Ġà²Ľà²¤": 8256,
      "velopment": 8257,
      "Ġsurface": 8258,
      "Ġemb": 8259,
      "ype": 8260,
      "itting": 8261,
      "Ġcapital": 8262,
      "Ġprotest": 8263,
      "ĠCommission": 8264,
      "Ġlatter": 8265,
      "ĠRegiment": 8266,
      "Ġcommander": 8267,
      "Ġwaters": 8268,
      "Ġvaiint": 8269,
      "Ġbecoming": 8270,
      "Ġproblems": 8271,
      "Ġconducted": 8272,
      "Ġschol": 8273,
      "nSubmitted": 8274,
      "ĠVietn": 8275,
      "ĠSuzuki": 8276,
      "66": 8277,
      "83": 8278,
      "AP": 8279,
      "LED": 8280,
      "Pr": 8281,
      "jav": 8282,
      "nà²°": 8283,
      "ners": 8284,
      "pm": 8285,
      "tained": 8286,
      "à³į/": 8287,
      "à²°à²¯à²¦à²²": 8288,
      "à²Ĺà²®à²µ": 8289,
      "à¤¤à¤°à¤ķ": 8290,
      "à²¸à²¨à²Ĺà²³": 8291,
      "à¤®à¤ķà¤°": 8292,
      "à³ĩ-": 8293,
      "à²®à²Ń": 8294,
      "à²®à²¤à²¦": 8295,
      "à¤ªà¤¬": 8296,
      "Ġà¤ľà¤²à¤¨": 8297,
      "à¤ľà¤°à¤¤": 8298,
      "Ġà¤ħà¤µà¤²": 8299,
      "à³ĭ'": 8300,
      "Ġà²¤à²¥": 8301,
      "Ġà²Ĩà²Ń": 8302,
      "Ġà¤Ĩà¤ĵ": 8303,
      "Ġà²İà²¡à²µ": 8304,
      "à²ľà²¤": 8305,
      "à²ľà²³": 8306,
      "Ġà²Ĺà²¨": 8307,
      "Ġà¤ļà¤®à¤¤": 8308,
      "à²Ńà²¤": 8309,
      "Ġsat": 8310,
      "Ġsem": 8311,
      "ato": 8312,
      "atus": 8313,
      "itation": 8314,
      "iser": 8315,
      "à¤«à¤¨": 8316,
      "à¤«à¤¬": 8317,
      "Ġà²Ĵà²²à²µ": 8318,
      "Ġà²īà²£": 8319,
      "Ġbene": 8320,
      "Ġbrief": 8321,
      "à²¤à²°à²Ĺà²³à²¨": 8322,
      "Ġpath": 8323,
      "Ġpair": 8324,
      "Ġmakes": 8325,
      "Ġà¤ħà¤¨à¤ľ": 8326,
      "ĠSap": 8327,
      "ĠSub": 8328,
      "ĠAN": 8329,
      "à²°à²£à²Ĺà²³à²¨": 8330,
      "à¤Ĩà¤®": 8331,
      "Ġnecess": 8332,
      "à²°à²®à²Ł": 8333,
      "ĠMP": 8334,
      "ĠBig": 8335,
      "ĠPost": 8336,
      "Ġgirl": 8337,
      "Ġ5000": 8338,
      "à¤¯à¤°à¤¨": 8339,
      "ĠRout": 8340,
      "ĠRaj": 8341,
      "ĠNY": 8342,
      "ĠNations": 8343,
      "ĠLike": 8344,
      "Ġstating": 8345,
      "Ġhealth": 8346,
      "à¤īà¤¨à¤ķ": 8347,
      "Ġà¤°à¤ĸà¤°à¤ĸ": 8348,
      "ĠEver": 8349,
      "..!": 8350,
      "estival": 8351,
      "Ġà²ķà²³à²µà²³": 8352,
      "ĠJim": 8353,
      "ĠKar": 8354,
      "ĠKot": 8355,
      "ĠKey": 8356,
      "Ġ104": 8357,
      "à²ħà²¯": 8358,
      "istry": 8359,
      "à²°à²¹à²ķ": 8360,
      "oper": 8361,
      "à²Ĩà²¯": 8362,
      "iah": 8363,
      "Ġ91": 8364,
      "oreo": 8365,
      "Ġrule": 8366,
      "à²§à²¨à²¦à²²": 8367,
      "ipa": 8368,
      "Ġà¤Ŀà¤²à¤ķ": 8369,
      "ender": 8370,
      "Ġshared": 8371,
      "2019": 8372,
      "undred": 8373,
      "Ġà¤¸à¤ļà¤¦": 8374,
      "Ġ144": 8375,
      "Ġà¤®à¤¦à¤¦à¤Ĺ": 8376,
      "rick": 8377,
      "Ġresearch": 8378,
      "à²Ĵà²Ł": 8379,
      "Ġà¤Ĩà¤²à¤®": 8380,
      "ension": 8381,
      "Ġtext": 8382,
      "à¤®à¤Ĺà¤¢": 8383,
      "ario": 8384,
      "à¥§à¥®": 8385,
      "Ġearth": 8386,
      "Ġ1972": 8387,
      "Ġ1964": 8388,
      "Ġassigned": 8389,
      "Ġpolicy": 8390,
      "Ġsubject": 8391,
      "à²¤à²¡à²µà²¨": 8392,
      "Ġaccomp": 8393,
      "Ġrunning": 8394,
      "Ġpoet": 8395,
      "ĠCommand": 8396,
      "à²¨à²Ĺà²°à²¦à²²": 8397,
      "Ġtaku": 8398,
      "ĠColon": 8399,
      "Ġdemon": 8400,
      "ĠWeek": 8401,
      "ĠChristmas": 8402,
      "Ġpresence": 8403,
      "Ġterms": 8404,
      "Ġpresented": 8405,
      "ĠCharles": 8406,
      "Ġcaptured": 8407,
      "Ġsuggested": 8408,
      "Ġà¤¬à¤°à¤¤à¤¨": 8409,
      "Ġfootball": 8410,
      "Ġcondoms": 8411,
      "ĠTaylor": 8412,
      "Ġdedicated": 8413,
      "Ġenjoy": 8414,
      "Ġkokoreo": 8415,
      "à²ķÃ¸à²¤": 8416,
      "400": 8417,
      "59": 8418,
      "TP": 8419,
      "UR": 8420,
      "bit": 8421,
      "gs": 8422,
      "ging": 8423,
      "pro": 8424,
      "pool": 8425,
      "pole": 8426,
      "uals": 8427,
      "à¸": 8428,
      "à²¤à²¬": 8429,
      "à¤¹à¤Ĺ": 8430,
      "Ġà¤®à¤µ": 8431,
      "Ġà¤ªà¤Ĺ": 8432,
      "à²®à²µà²°": 8433,
      "à¤ªà¤°à¤¤": 8434,
      "Ġà¤ľà¤ª": 8435,
      "Ġà¤ľà¤¯à¤°": 8436,
      "Ġà²¬à²ķ": 8437,
      "Ġà¤°à¤¥": 8438,
      "à¤¬à¤ļ": 8439,
      "hem": 8440,
      "Ġà²Ĩà²¸à²°": 8441,
      "Ġà¤Ĩà¤¡à¤µ": 8442,
      "Ġà¤īà¤ķà¤¸": 8443,
      "à²¶à²Ĺ": 8444,
      "à²µà²°à²£à²Ĺ": 8445,
      "ergy": 8446,
      "Ġà²Ĺà²µ": 8447,
      "Ġsave": 8448,
      "Ġsides": 8449,
      "anag": 8450,
      "à²µà²¨à²¹à²³": 8451,
      "atra": 8452,
      "Ġwood": 8453,
      "esi": 8454,
      "Ġcanc": 8455,
      "Ġà¤«à¤°à¤®": 8456,
      "Ġà²¯à²®": 8457,
      "Ġina": 8458,
      "Ġpu": 8459,
      "Ġpaper": 8460,
      "Ġà¤¸à¤®à¤²": 8461,
      "roid": 8462,
      "à¤ĩà¤ļ": 8463,
      "Ġdu": 8464,
      "ĠTur": 8465,
      "ĠTex": 8466,
      "à²°à²µà²¦": 8467,
      "ĠSch": 8468,
      "ĠAlex": 8469,
      "Ġnu": 8470,
      "à²İà²ķ": 8471,
      "Ġà²Ĩà²°à²¨": 8472,
      "Ġà²Ĩà²Ĺà²®à²¨": 8473,
      "Ġà¤§à¤µà¤¨": 8474,
      "à²¸à²°à²¦à²²": 8475,
      "ĠIf": 8476,
      "ĠPit": 8477,
      "à¤ªà¤°à¤¨": 8478,
      "à¤°à¤¹à¤µ": 8479,
      "ĠRh": 8480,
      "ĠRoss": 8481,
      "unction": 8482,
      "ĠLi": 8483,
      "à¤ĺà¤ķ": 8484,
      "odon": 8485,
      "Ġà¤ĵà¤µ": 8486,
      "ĠJer": 8487,
      "rial": 8488,
      "Ġà¤ªà¤¡à¤¤": 8489,
      "à¤¯à¤¨à¤ª": 8490,
      "apa": 8491,
      "à²ĩà²µà²°": 8492,
      "Ġrights": 8493,
      "ipu": 8494,
      "berg": 8495,
      "Ġplot": 8496,
      "à²¥à²³à²µà²¨": 8497,
      "Ġspl": 8498,
      "à²¯à²ķà²°à²µ": 8499,
      "anges": 8500,
      "ĠChron": 8501,
      "Ġagreed": 8502,
      "order": 8503,
      "Ġà¥¨à¥ª": 8504,
      "à¥¨à¥®": 8505,
      "Ġneigh": 8506,
      "ĠReview": 8507,
      "Ġà²¥à²°": 8508,
      "Ġdecision": 8509,
      "Ġ1967": 8510,
      "Ġlargely": 8511,
      "atsi": 8512,
      "Ġmethod": 8513,
      "Ġà²Ķà²·à²§à²Ĺà²³": 8514,
      "tty": 8515,
      "Ġmarried": 8516,
      "Ġmarriage": 8517,
      "ĠClin": 8518,
      "ĠClark": 8519,
      "Ġbring": 8520,
      "Ġphot": 8521,
      "ĠFranc": 8522,
      "Ġbox": 8523,
      "Ġcountries": 8524,
      "Ġeffects": 8525,
      "Ġsmaller": 8526,
      "Ġallowing": 8527,
      "Ġà¤¦à¤¹à¤¶à¤¤": 8528,
      "Ġjustkannada": 8529,
      "ĠMuseum": 8530,
      "Ġhands": 8531,
      "Ġincrease": 8532,
      "Ġopportun": 8533,
      "Ġpresident": 8534,
      "Ġmarked": 8535,
      "uzz": 8536,
      "Ġaffili": 8537,
      "Ġexperi": 8538,
      "Ġbeginning": 8539,
      "aught": 8540,
      "ĠMedia": 8541,
      "Ġfriends": 8542,
      "Ġà¤ľà¤¬à¤°à¤¨": 8543,
      "Ġranked": 8544,
      "Ġfigure": 8545,
      "ĠParty": 8546,
      "Ã³n": 8547,
      "Ġparen": 8548,
      "ĠSarnia": 8549,
      "68": 8550,
      "700": 8551,
      "91": 8552,
      "cle": 8553,
      "hat": 8554,
      "iro": 8555,
      "mAh": 8556,
      "rated": 8557,
      "Ġut": 8558,
      "Ġult": 8559,
      "à²Ĭ": 8560,
      "à³ģ),": 8561,
      "à²²à²®à²¨": 8562,
      "à²Ĥ)": 8563,
      "à¤ķà¤µà¤°": 8564,
      "à²¸à²µà²ķ": 8565,
      "Ġà²®à²ļ": 8566,
      "Ġà²®à²¦à²¨": 8567,
      "à¤Ĺà¤¬à¤¨": 8568,
      "Ġà¤¨à¤®à¤¸": 8569,
      "Ġà¤ľà¤¨à¤ķ": 8570,
      "Ġà¤ľà¤ĺà¤¨": 8571,
      "Ġà¤ħà¤®à¤¨": 8572,
      "à¥Ĥ)": 8573,
      "à¤ıà¤ľ": 8574,
      "Ġà¤ĩà¤Ł": 8575,
      "Ġà¤ıà¤¨à¤°": 8576,
      "rec": 8577,
      "Ġsource": 8578,
      "itude": 8579,
      "oration": 8580,
      "Ġcoin": 8581,
      "Ġcounter": 8582,
      "Ġà¤«à¤Ł": 8583,
      "Ġmale": 8584,
      "à¤ĩà¤Ĺ": 8585,
      "Ġdom": 8586,
      "Ġdivision": 8587,
      "ĠTele": 8588,
      "ĠSir": 8589,
      "ĠSaint": 8590,
      "Ġnh": 8591,
      "Ġnine": 8592,
      "Ġthrow": 8593,
      "à¤ĵà¤¨": 8594,
      "Ġà²®à²¨à²®": 8595,
      "Ġà²«à²¸à²²": 8596,
      "ĠBo": 8597,
      "ĠBoard": 8598,
      "ĠBBC": 8599,
      "ecially": 8600,
      "à²²à²¦à²ķ": 8601,
      "ĠDes": 8602,
      "ĠFred": 8603,
      "ĠLock": 8604,
      "ĠLiver": 8605,
      "à¤¾à¤ģ)": 8606,
      "Ġhere": 8607,
      "anda": 8608,
      "anded": 8609,
      "à²ķà²°à²£à²µà²¨": 8610,
      "ĠOs": 8611,
      "à¤¦à¤°à¤ħà¤¸à¤²": 8612,
      "à²ĩà²¦à²ķ": 8613,
      "Ġran": 8614,
      "Ġà¤ħà¤ªà¤µ": 8615,
      "Ġà¤ħà¤¸à¤¤": 8616,
      "Ġà¤ħà¤¸à¤¹": 8617,
      "Ġcho": 8618,
      "ĠVi": 8619,
      "Ġplat": 8620,
      "acks": 8621,
      "à²°à²³à²¦à²²": 8622,
      "ective": 8623,
      "Ġà¤īà¤łà¤¨": 8624,
      "Ġà¤Ĭà¤¨": 8625,
      "Ġà²Ĭà²°à²²": 8626,
      "Ġarmy": 8627,
      "ĠThunder": 8628,
      "Ġà²Ĩà²Łà²µà²¨": 8629,
      "arend": 8630,
      "Ġresidents": 8631,
      "Ġrecon": 8632,
      "aiqa": 8633,
      "Ġplays": 8634,
      "Ġà¤ħà¤«à¤°": 8635,
      "ĠRef": 8636,
      "Ġoffice": 8637,
      "Ġ1985": 8638,
      "Ġ1979": 8639,
      "à³§à³§": 8640,
      "à³§à³®": 8641,
      "Ġà²·à²¡": 8642,
      "ĠSpain": 8643,
      "ledge": 8644,
      "ĠDev": 8645,
      "Ġdescribes": 8646,
      "Ġinside": 8647,
      "Ġbrig": 8648,
      "Ġprotected": 8649,
      "ĠFrank": 8650,
      "ĠØ¹": 8651,
      "Ġtitled": 8652,
      "Ġoblig": 8653,
      "Ġannual": 8654,
      "ĠWalpole": 8655,
      "Ġattempts": 8656,
      "ĠCanadian": 8657,
      "ĠCorps": 8658,
      "ĠØ§ÙĦØ": 8659,
      "Ġmiu": 8660,
      "Ġinitially": 8661,
      "à¤Ĩà¤Īà¤ıà¤ıà¤¨à¤ıà¤¸": 8662,
      "----------------": 8663,
      "ĠSOU": 8664,
      "Ġterritory": 8665,
      "Ġmentioned": 8666,
      "Ġnucle": 8667,
      "https": 8668,
      "idelines": 8669,
      "Ġimmediately": 8670,
      "à³¨à³¦à³¦à³§": 8671,
      "Ġespecially": 8672,
      "ĠRoute": 8673,
      "%,": 8674,
      ".'": 8675,
      "05": 8676,
      "07": 8677,
      "BS": 8678,
      "IV": 8679,
      "bird": 8680,
      "à¥°": 8681,
      "Ġà¤¹à¤°à¤®": 8682,
      "à²³à²ª": 8683,
      "à²¡à²¤à²ķ": 8684,
      "à¤®à¤¬": 8685,
      "Ġà²®à²°à²µ": 8686,
      "à¤µà¤°à¤ķ": 8687,
      "Ġà²¹à²ľ": 8688,
      "Ġà²¬à²°à²µà²£": 8689,
      "Ġà¤µà¤§": 8690,
      "à³ĭà²ĥ": 8691,
      "à¤¡à¤¤": 8692,
      "à¤ıà¤¬": 8693,
      "hester": 8694,
      "à²¦à²°à²¦": 8695,
      "Ġà¤Ńà¤Ĺà¤¤": 8696,
      "Ġà²°à²¬": 8697,
      "Ġà¤ªà¤°à¤¶": 8698,
      "ero": 8699,
      "à¤£à¤®à¤¨": 8700,
      "Ġà¤ļà¤¹à¤°": 8701,
      "reater": 8702,
      "edd": 8703,
      "à¥Ģà¤Ĥ?": 8704,
      "Ġcand": 8705,
      "Ġcateg": 8706,
      "Ġpark": 8707,
      "Ġmas": 8708,
      "Ġmaster": 8709,
      "à¤ĩà¤®à¤°": 8710,
      "Ġdaughter": 8711,
      "ĠSab": 8712,
      "ĠCat": 8713,
      "Ġrein": 8714,
      "ĠMart": 8715,
      "aded": 8716,
      "Ġà²®à²¨à²µà²°": 8717,
      "à¤ģà¥¤": 8718,
      "ĠIV": 8719,
      "ĠBol": 8720,
      "ĠBet": 8721,
      "ĠBoy": 8722,
      "à¤ªà¤°à¤¹": 8723,
      "imum": 8724,
      "à²®à²¨à²¸": 8725,
      "Ġà²ĸà²ľ": 8726,
      "ĠNes": 8727,
      "ĠFoot": 8728,
      "ĠLar": 8729,
      "ĠGood": 8730,
      "à²¯à²®à²¦à²µà²°": 8731,
      "à¤¸à¤¨à¤²": 8732,
      "à²ķà²²à²¬": 8733,
      "Ġ900": 8734,
      "à²¨à²Ĺà²³à²µà²°": 8735,
      "Ġdeploy": 8736,
      "Ġ!!": 8737,
      "Ġà¤ªà¤¦à¤¸": 8738,
      "Ġplans": 8739,
      "Ġ112": 8740,
      "iance": 8741,
      "2020": 8742,
      "2017": 8743,
      "indra": 8744,
      "Ġcontains": 8745,
      "Ġà¤ªà¤ķà¤µ": 8746,
      "Ġà¤Ĩà¤®à¤¦à¤¨": 8747,
      "Ġcompl": 8748,
      "Ġcompos": 8749,
      "izing": 8750,
      "Ġdisplay": 8751,
      "Ġcentre": 8752,
      "Ġearned": 8753,
      "à³§à³©": 8754,
      "Ø§Ø": 8755,
      "Ġ1965": 8756,
      "ÙĦÙĩ": 8757,
      "Ġnumbers": 8758,
      "Ġcollect": 8759,
      "ĠProfess": 8760,
      "ttar": 8761,
      "Ġbelow": 8762,
      "Ġcontinu": 8763,
      "plement": 8764,
      "Ġdepression": 8765,
      "Ġvariety": 8766,
      "Ġcomplex": 8767,
      "Ġconsider": 8768,
      "à¤ĳà¤ķ": 8769,
      "Ġappears": 8770,
      "Ġpositive": 8771,
      "Ġheadquarters": 8772,
      "Ġofficers": 8773,
      "Ġlegisl": 8774,
      "Ġslight": 8775,
      "Ġà¤ıà¤ļà¤¡": 8776,
      "ĠEdward": 8777,
      "Ġapproach": 8778,
      "Ġarchit": 8779,
      "Ġissued": 8780,
      "Ġcultural": 8781,
      "Ġexperience": 8782,
      "Ġstandard": 8783,
      "ĠTowns": 8784,
      "Ġneeded": 8785,
      "Ġpeaked": 8786,
      "Ġrespectively": 8787,
      "Ġcopies": 8788,
      "Ġlaunched": 8789,
      "Ġjournal": 8790,
      "ĠOliv": 8791,
      "Ġtraining": 8792,
      "oncÃ©": 8793,
      "Ġconstructed": 8794,
      "Ġcelebr": 8795,
      "ĠBeyoncÃ©": 8796,
      "ĠNicole": 8797,
      "/-": 8798,
      "96": 8799,
      "FA": 8800,
      "pol": 8801,
      "pet": 8802,
      "para": 8803,
      "sylv": 8804,
      "vir": 8805,
      "Â»": 8806,
      "Ùģ": 8807,
      "à³įà²¿": 8808,
      "à¥ĩ!": 8809,
      "Ġà¤ķà¤Ľ": 8810,
      "à¤ķà¤¯": 8811,
      "à¤¸à¤Ĺ": 8812,
      "à¤¹à¤®à¤¨": 8813,
      "à¤µà¤Ĺ": 8814,
      "Ġà²ķà²Ĺ": 8815,
      "Ġà¤¨à¤¬": 8816,
      "à²ªà²¥": 8817,
      "Ġà²¬à²¸à²¦": 8818,
      "Ġà¤µà¤°à¤¦": 8819,
      "Ġtell": 8820,
      "Ġtreat": 8821,
      "à¤¶à¤ľ": 8822,
      "Ġà¤ĩà¤°à¤«": 8823,
      "Ġà¤Ńà¤Łà¤ķ": 8824,
      "à¤·à¤¯à¤ķ": 8825,
      "Ġà¤Ķà¤ªà¤ļ": 8826,
      "à¤¥à¤¡": 8827,
      "à¤¼à¥¤": 8828,
      "Ġsense": 8829,
      "atur": 8830,
      "eding": 8831,
      "à¤«à¤°à¤ª": 8832,
      "Ġà¤ĸà¤ªà¤¤": 8833,
      "Ġcru": 8834,
      "Ġà¤«à¤¤": 8835,
      "Ġfear": 8836,
      "Ġbul": 8837,
      "Ġbomb": 8838,
      "Ġbatter": 8839,
      "Ġmana": 8840,
      "à¥īà¥¤": 8841,
      "Ġdig": 8842,
      "Ġà¤ħà¤¨à¤²": 8843,
      "ĠSU": 8844,
      "ĠSal": 8845,
      "ĠSnow": 8846,
      "amy": 8847,
      "ĠMet": 8848,
      "Ġthous": 8849,
      "olf": 8850,
      "ĠBaj": 8851,
      "ĠDam": 8852,
      "Ġà²ħà²°à²¸à²°": 8853,
      "Ġvu": 8854,
      "ĠNote": 8855,
      "ĠLou": 8856,
      "ĠLong": 8857,
      "ulted": 8858,
      "Ġà¤ħà¤²à¤®": 8859,
      "ĠWay": 8860,
      "Ġà¤ľà¤¨à¤¹": 8861,
      "Ġà¤ľà¤¨à¤ª": 8862,
      "..?": 8863,
      "aksh": 8864,
      "Ġà¤ĵà¤¬": 8865,
      "ĠJay": 8866,
      "à²ķà²°à²£à²Ĺ": 8867,
      "Ġà³¦": 8868,
      "ĠKap": 8869,
      "Ġ101": 8870,
      "Ġà²Ĳà²«": 8871,
      "à²Ĩà²¤": 8872,
      "Ġdeg": 8873,
      "quare": 8874,
      "à¥Ĥà¤Ĥ.": 8875,
      "Ġà¤ľà¤²à¤ª": 8876,
      "ĠUl": 8877,
      "Ġchi": 8878,
      "bert": 8879,
      "Ġshot": 8880,
      "Ġà¤¸à¤®à¤Ŀà¤ķà¤°": 8881,
      "eph": 8882,
      "Ġà¤īà¤łà¤ķà¤°": 8883,
      "Ġà²Ĺà²®à²¨à²¹à²°": 8884,
      "à²¸à²µà²¦à²²": 8885,
      "ĠThat": 8886,
      "Ġintended": 8887,
      "Ġadop": 8888,
      "Ġà²®à²²à²¯": 8889,
      "ibr": 8890,
      "à²°à²ļà²²": 8891,
      "Ġscale": 8892,
      "Ġscenes": 8893,
      "ervation": 8894,
      "à¥¨à¥§": 8895,
      "Ġattention": 8896,
      "Ġoverall": 8897,
      "ancy": 8898,
      "Ġ1981": 8899,
      "Ġ1974": 8900,
      "à³ģ).": 8901,
      "Ġminute": 8902,
      "Ġmoving": 8903,
      "Ġcharge": 8904,
      "Ġ1966": 8905,
      "Ġ1941": 8906,
      "Ġwrite": 8907,
      "ĠSpanish": 8908,
      "Ġsyn": 8909,
      "Ġà²ķà²¸à²°à²¤": 8910,
      "Ġrecords": 8911,
      "ĠProt": 8912,
      "à²²à²ķà²°à²µ": 8913,
      "Ġà²®à²łà²ķ": 8914,
      "Ġguidelines": 8915,
      "Ġstudies": 8916,
      "Ġà¤Ĩà¤ļà¤°à¤£": 8917,
      "Ġperformances": 8918,
      "afa": 8919,
      "Ġnearby": 8920,
      "Ġà³©à³¦": 8921,
      "ĠØ£": 8922,
      "Ġtitles": 8923,
      "Ġinstit": 8924,
      "Ġefforts": 8925,
      "Ġà¤Ĩà¤īà¤Łà¤ª": 8926,
      "Ġmodel": 8927,
      "Ġà³§à³¯à³¯": 8928,
      "Ġà²ħà²°à²µà²¤": 8929,
      "Ġhistorical": 8930,
      "Ġnortheast": 8931,
      "ĠPrem": 8932,
      "Ġvocals": 8933,
      "Ġmachine": 8934,
      "Ġpurp": 8935,
      "ĠCarey": 8936,
      "ĠPennsylv": 8937,
      "ĠLiverpool": 8938,
      "BJP": 8939,
      "MI": 8940,
      "Plan": 8941,
      "bi": 8942,
      "bour": 8943,
      "bury": 8944,
      "iq": 8945,
      "mo": 8946,
      "ÄŁ": 8947,
      "à´": 8948,
      "à¤°à¤ªà¤°": 8949,
      "à²¦à²Ĺà²²": 8950,
      "à²¨à²ªà²°": 8951,
      "à²¤à²¸à²¦": 8952,
      "à²¤à²ķà²µ": 8953,
      "à²¯à²³": 8954,
      "à¤¯à¤¬à¤°": 8955,
      "à¤¸à¤¡": 8956,
      "à¤¸à¤µà¤°": 8957,
      "à¤¸à¤¬à¤¸": 8958,
      "Ġà¤¹à¤¸à¤¨": 8959,
      "à²¡à²¯": 8960,
      "à¤¹à¤¡": 8961,
      "à¤®à¤ķà¤°à¤£": 8962,
      "à¤®à¤ļà¤°": 8963,
      "Ġà¤®à¤²à¤¬": 8964,
      "Ġà²ķà²°à²£": 8965,
      "Ġà²ķà²¦à²¨": 8966,
      "Ġà²¨à²¸": 8967,
      "Ġà²¹à²Ł": 8968,
      "Ġà¤ħà¤ĸà¤°": 8969,
      "à²¬à²¬": 8970,
      "à¤¬à¤§": 8971,
      "Ġà¤Ĩà¤ī": 8972,
      "Ġà¤Ĺà¤§": 8973,
      "à²¶à²¯à²Ĺà²³": 8974,
      "Ġà¤¶à¤¹à¤¦": 8975,
      "Ġsusp": 8976,
      "Ġwit": 8977,
      "isions": 8978,
      "Ġà²ļà²°à²£": 8979,
      "à¥Ģà¤Ĥ-": 8980,
      "Ġcert": 8981,
      "Ġà¤«à¤²à¤¸": 8982,
      "Ġà²Ńà²µà²¨à²¦à²²": 8983,
      "Ġfill": 8984,
      "Ġmel": 8985,
      "Ġmess": 8986,
      "Ġdire": 8987,
      "Ġhundred": 8988,
      "Ġà¤ħà¤¨à¤¦": 8989,
      "ĠTop": 8990,
      "ĠTurn": 8991,
      "à²°à²µà²ķ": 8992,
      "ĠSS": 8993,
      "ĠSil": 8994,
      "ĠSquadron": 8995,
      "à²°à²ķà²Ĺà²³": 8996,
      "Ġà²¸à²®à²µà²¸": 8997,
      "amu": 8998,
      "ĠCNG": 8999,
      "oms": 9000,
      "à²İà²İ": 9001,
      "Ġlot": 9002,
      "ĠMounted": 9003,
      "ademy": 9004,
      "Ġà²ľà²¨à²ªà²¦": 9005,
      "Ġà¤¤à¤ķà¤²": 9006,
      "ĠHome": 9007,
      "utions": 9008,
      "ĠRam": 9009,
      "ĠRose": 9010,
      "ĠRachel": 9011,
      "uny": 9012,
      "Ġvin": 9013,
      "Ġvia": 9014,
      "thm": 9015,
      "ĠNex": 9016,
      "ĠFA": 9017,
      "ĠFant": 9018,
      "à²ªà²°à²°": 9019,
      "chan": 9020,
      "ching": 9021,
      "à²Łà²ķà²µà²¨": 9022,
      "Ġ650": 9023,
      "Ġalways": 9024,
      "à¤ĺà¤®": 9025,
      "estic": 9026,
      "osh": 9027,
      "Ġà¤®à¤¨à¤°": 9028,
      "à²ħà²¥à²µ": 9029,
      "à²®à²ķà²Ĺ": 9030,
      "Ġà¤ħà¤ªà¤ķà¤®": 9031,
      "ovic": 9032,
      "ĠInst": 9033,
      "ĠInstitute": 9034,
      "illery": 9035,
      "udy": 9036,
      "Ġsea": 9037,
      "ĠUnder": 9038,
      "à¤ıà¤®à¤ĵ": 9039,
      "iana": 9040,
      "ĠStorm": 9041,
      "ections": 9042,
      "Ġà²ıà²ķà²¤": 9043,
      "Ġleave": 9044,
      "Ġleague": 9045,
      "Ġà²Ĵà²³à²ªà²Ł": 9046,
      "Ġà¤¸à¤ļà¤®": 9047,
      "anydja": 9048,
      "Ġà¤Ĩà¤¶à¤¯": 9049,
      "obal": 9050,
      "Ġà²Ĩà²¶à²¯": 9051,
      "à¥¨à¥¬": 9052,
      "à²¯à²£à²¸": 9053,
      "ĠAnn": 9054,
      "Ġà¤ıà¤¨à¤Ĩà¤Īà¤ı": 9055,
      "Ġmeke": 9056,
      "ancial": 9057,
      "Ġtheme": 9058,
      "Ġ1968": 9059,
      "Ġflight": 9060,
      "Ġà¤ªà¤Łà¤µ": 9061,
      "Ġnumerous": 9062,
      "ĠAtt": 9063,
      "Ġnewsp": 9064,
      "ĠEngine": 9065,
      "ĠPradesh": 9066,
      "inese": 9067,
      "Ġartists": 9068,
      "Ġ1952": 9069,
      "Ġmainly": 9070,
      "Ġmaintain": 9071,
      "ambe": 9072,
      "Ġdirectly": 9073,
      "Ġà¥§à¥¯à¥ª": 9074,
      "ĠAndrew": 9075,
      "Ġà¤ļà¤®à¤¡": 9076,
      "à¤®à¤ľà¤¦": 9077,
      "ĠCollege": 9078,
      "Ġmajority": 9079,
      "Ġauthorities": 9080,
      "à²¦à²¶à²¹à²¨": 9081,
      "Ġarrived": 9082,
      "Ġcourse": 9083,
      "Ġpowerful": 9084,
      "Ġproposed": 9085,
      "ĠPalest": 9086,
      "Ġfrequ": 9087,
      "á¹Łu": 9088,
      "à²°à²¬à²°à²²": 9089,
      "Ġletter": 9090,
      "Ġletters": 9091,
      "Ġinfluence": 9092,
      "Ġpractice": 9093,
      "ĠInfantry": 9094,
      "Ġnarrow": 9095,
      "Ġhouses": 9096,
      "ĠQueen": 9097,
      "Ġfocus": 9098,
      "ĠIllino": 9099,
      "alysis": 9100,
      "ĠTexas": 9101,
      "ĠPennsylvania": 9102,
      ")-": 9103,
      "51": 9104,
[...]
